0C
14
02
09
FA
02
FF
00
02
09
0C
FB
02
F9
24
17
03
0D
0A
FC
10
F4
13
07
02
09
FD
02
12
05
F6
F5
FE
08
FB
19
FB
00
01
04
E7
FB
06
10
F9
FB
EF
00
FB
11
03
0B
02
F2
FA
10
09
F3
08
08
02
E7
00
FA
08
0E
07
04
15
12
FF
07
10
07
FE
F8
18
00
0D
1B
FA
06
FC
0A
1A
0C
F8
05
01
03
FF
07
08
F6
F6
07
03
F2
08
01
06
F7
08
FD
FB
ED
F2
08
FE
0C
04
0B
10
0E
FB
F9
FB
04
08
FB
12
0A
FC
0F
12
FF
FB
00
