02
FF
04
04
01
02
FD
04
02
03
FC
04
0A
09
FA
03
02
00
FE
03
03
02
03
03
02
FD
03
01
FD
FC
FC
FF
00
05
0E
09
10
03
0F
15
1F
20
08
0F
01
08
16
1B
17
11
11
0B
02
05
FC
00
03
02
03
12
19
08
08
0E
14
02
F7
05
07
05
02
07
03
FD
06
21
26
29
23
16
07
00
02
04
FC
FE
0B
10
09
02
14
14
0F
02
00
FC
03
F4
EC
E7
E3
ED
01
0D
0B
F9
01
0A
04
02
00
FF
FD
01
0B
11
07
01
09
00
F5
F5
F3
EF
F2
FF
FE
F3
FB
F9
05
13
FE
F5
E5
F0
F0
F7
FC
FF
FC
02
19
FF
06
FD
00
03
F7
FF
F2
F3
F2
FA
F3
F0
ED
F0
FF
FD
EF
E7
D8
DD
EC
ED
F7
F6
FC
F7
01
08
01
F6
FC
04
F9
FE
F7
F2
F1
F7
00
F6
05
11
13
FF
FA
F5
EC
E0
DD
EE
F8
F8
FF
FB
00
09
FE
EB
FB
FC
EF
FB
F5
F1
FB
04
04
06
0D
16
12
04
02
F7
EE
DC
D5
E6
F9
EB
F7
0B
03
FA
FE
F5
FD
04
01
03
FE
F8
F9
FD
05
07
08
14
0F
04
F6
EF
E3
DC
E0
DE
F1
E9
05
13
05
FC
03
FB
04
07
05
02
FD
FA
F7
F9
03
0E
05
0F
0E
0B
01
F7
EA
E4
DF
DF
F0
06
00
0A
0F
00
07
07
08
02
08
02
F5
F8
F7
07
11
0D
05
01
07
0D
0F
FC
F0
E6
E3
F8
EE
0C
03
FF
14
0B
0A
0B
FB
08
05
F6
FC
09
F9
0A
1A
0D
FD
FE
0E
14
1A
0F
FD
EF
DA
D7
D5
09
FF
08
18
10
14
0A
01
06
FE
F7
05
0D
F9
FD
13
0A
FE
FE
05
0E
18
13
02
FC
E3
E1
EE
0E
0F
09
13
16
22
04
09
07
FA
F4
05
02
F5
03
0D
03
01
FC
01
0D
15
10
01
00
F9
EA
E7
F6
F9
03
15
1A
15
03
FD
FF
FC
01
08
07
FC
06
08
FF
FA
F4
09
1C
21
12
FC
FC
F2
EB
E8
F9
01
F8
02
06
00
04
FD
FF
06
0B
10
03
04
07
02
FB
02
F9
07
13
18
06
FC
FC
ED
EB
EC
F3
00
03
00
F7
09
09
F8
04
12
15
14
02
FC
FD
FD
FB
05
FA
01
06
03
02
FC
F0
EE
D7
D9
F2
01
03
F0
F8
FE
FE
EF
F7
07
10
0E
F7
FC
00
04
FF
FD
F5
01
04
04
07
FF
EC
F7
F2
EA
FA
12
05
01
F6
FB
F4
DC
EC
F0
FE
FB
F6
01
12
0A
F6
ED
F3
01
04
05
FE
FC
E3
E0
FD
0E
04
05
17
11
F9
F8
E7
E1
E1
E1
ED
F0
F9
0D
14
07
EF
E4
EB
F6
05
FB
FC
FA
E5
E7
05
FC
16
00
10
02
F0
FC
F6
EA
DD
DA
DF
F1
02
0D
10
06
EB
E8
E9
EB
F6
F3
00
FE
F8
FF
06
FE
07
FF
FF
FD
F6
09
EB
E2
D9
DA
E7
00
FE
10
0B
FC
E9
E1
E2
EB
F5
FD
04
F6
F2
FF
01
F7
04
00
05
F7
F4
FB
E8
E9
E4
EB
F5
FF
FD
0A
07
05
F3
E5
EB
F4
FB
00
FA
F3
FC
00
FF
FD
06
02
04
F5
F6
F0
E2
E1
F3
F5
FE
07
06
0D
09
02
F7
EA
EA
F2
FA
F6
EF
01
07
07
FE
0A
04
02
04
FD
FC
F2
F0
E0
F8
02
04
05
04
04
FF
F5
F5
E0
EA
EC
F6
F5
EC
F6
06
03
FE
07
01
FC
FD
FA
04
FB
FA
F7
0E
17
14
02
04
0F
06
09
F8
EF
E5
F5
03
03
03
FD
FF
02
04
FE
00
02
FC
00
0B
01
FA
07
14
24
2A
16
09
0C
15
1A
15
1F
18
13
0D
1A
1E
1F
0B
0D
07
02
04
FC
FF
FE
01
05
06
0A
0F
0D
12
1C
19
17
23
27
13
14
17
25
1D
19
14
10
08
FE
02
04
01
FF
FE
00
02
03
FB
FD
03
01
FF
FE
FF
08
04
FE
FF
02
01
FF
FF
FF
01
FC
02
FC
01
00
02
FF
FF
04
FC
04
00
FC
02
FA
FD
07
FD
09
0B
11
07
05
09
13
08
0A
01
00
FC
02
00
02
04
03
FC
FF
FF
00
FD
00
06
FC
F5
F2
F6
15
20
17
0D
02
0A
11
1D
1B
03
03
06
01
FF
03
04
02
FD
FB
07
08
0D
09
05
02
EE
EF
07
0B
00
0B
05
0A
1F
14
0C
08
17
08
F6
0C
FD
00
03
FD
03
04
14
06
09
0B
07
02
F3
F9
02
03
0F
01
08
00
F6
F8
F9
F5
00
04
07
05
0C
F5
F7
FC
FF
09
04
0A
03
FC
10
07
04
09
0D
06
0C
08
0A
04
FF
F9
FA
F9
E6
F1
00
0A
0B
F3
F8
03
FB
07
FA
03
07
04
0B
0B
08
0D
09
FE
0B
0C
FB
FD
00
FB
05
0B
F7
FC
F8
07
F9
05
07
04
0B
0A
F7
08
06
FF
0C
04
02
FE
FB
FC
FD
08
00
02
FE
01
FD
08
03
00
01
0D
10
0D
08
03
FA
09
04
04
07
F9
03
00
F6
F4
F6
F0
FA
FB
FF
FE
FB
FB
FD
FB
FD
01
04
18
0F
F9
FF
FF
FE
F9
0B
02
EF
FA
FC
FA
FB
FE
FB
F9
FC
FD
FC
F6
F1
F8
F7
02
00
07
05
08
05
FB
0D
02
FB
ED
FD
FE
F6
E8
FF
02
FE
FC
F7
FF
FA
F9
F3
F0
ED
EB
F3
FC
FD
04
05
0E
1E
14
09
FC
FF
F4
F9
EE
E9
F3
06
0B
FD
F8
F4
FE
05
FE
FA
F8
F4
F4
EE
FB
FC
02
07
0A
1B
05
06
02
00
06
E9
E9
EE
FB
0D
08
00
0B
04
0D
17
15
0C
04
FD
F1
F1
FE
F6
01
07
14
0B
FE
FC
08
02
F6
EA
F3
F7
0B
12
03
07
15
13
20
1D
15
07
0F
08
FA
F9
FB
FA
F5
F6
FB
EC
DE
FF
0A
06
00
E9
F6
02
03
0F
10
1E
21
17
1D
14
0E
0F
0C
06
02
FE
FC
FB
F7
E5
E7
E4
E9
03
0A
09
0C
F7
F3
E6
EF
F7
09
24
2C
20
19
0B
04
05
07
01
0A
03
FE
01
F8
F3
E3
E8
01
01
FD
0A
0D
03
E1
D1
C2
CD
E1
FF
1C
22
1E
0A
05
FD
06
FD
06
FC
F6
F7
F1
EA
DA
DE
DF
FC
01
06
06
04
E3
C9
B9
B4
AE
BE
E2
F7
FB
FC
F7
02
FA
F6
FD
EF
F1
F6
EA
F1
EA
E8
EF
FC
F4
FA
0B
03
EE
CA
C5
B2
96
8F
A7
CC
DA
E7
F9
F9
F6
F9
F1
EB
F0
FC
FC
02
F1
F7
07
13
03
F5
FC
0D
F8
DF
DA
C8
A8
AC
AC
CA
D9
E7
F5
FD
01
EF
F0
EF
F8
FA
06
01
02
00
FE
14
FC
FD
0C
0B
FD
F2
F3
EB
EF
E3
DE
E2
E8
F4
F6
FB
02
F9
FD
FA
FA
F9
0B
0D
01
05
05
07
03
04
08
19
12
08
0F
18
21
1A
13
0C
0C
01
F5
FC
FE
FC
03
FE
FF
F9
FC
00
FF
FB
08
FF
03
02
0B
13
1B
18
18
21
2A
27
27
1F
12
06
F5
FB
F7
F7
F9
FB
FE
F6
F3
F9
FB
EB
02
04
FF
04
13
18
24
2B
16
1C
1F
1E
1C
14
0C
08
03
F8
F6
F4
FA
04
F4
F0
F7
FA
03
FE
12
FD
04
02
06
21
33
35
1E
20
11
15
16
FF
01
01
00
FA
F7
FD
05
FB
05
09
09
0F
11
0D
09
03
04
FE
09
06
18
28
0C
07
0A
FD
FB
FB
FD
05
03
FF
0A
0D
05
00
0F
09
25
1E
12
0D
00
03
05
04
01
05
16
15
13
04
F6
FF
01
FF
06
00
0A
0D
10
0A
09
10
17
F8
F7
F4
03
FF
02
FC
01
01
00
02
F7
F5
02
04
02
03
08
11
0A
FD
1B
1A
0A
0E
15
08
F7
F6
F3
FE
03
00
FC
00
FD
FE
02
01
03
03
FC
FF
FE
FC
03
00
FA
FD
06
FF
FF
FC
03
FD
FD
FC
03
03
FC
03
FC
00
02
03
00
00
FD
02
FA
FD
FD
FD
FD
00
F7
FB
08
0E
09
FD
F4
FC
F9
FC
FA
03
03
FD
FD
FF
01
00
00
03
F8
FD
FD
F9
03
07
05
FC
F9
06
01
0C
16
0A
0C
08
FA
F1
F4
F8
01
03
02
01
02
FC
0B
11
07
06
0A
08
14
0C
17
0B
10
09
09
11
11
09
05
F6
05
F1
FB
FD
FB
FE
F8
03
FC
04
0F
0F
12
0B
1B
16
1B
1C
26
19
1E
1B
1C
1A
12
11
18
11
07
FB
F4
F2
06
02
05
0A
FE
01
10
1A
13
0F
19
16
07
06
0F
15
12
0E
0B
0C
07
0A
06
0E
19
0D
0C
06
FE
13
0B
0B
04
0A
02
01
FD
0A
16
0B
06
0F
0C
07
0B
0A
06
FF
04
04
FC
FC
09
07
FF
FD
01
01
10
F2
F9
FC
F0
FB
12
13
10
00
07
FE
FD
FB
0A
FF
02
02
FE
F0
F1
FC
FA
FF
FC
F3
E5
03
00
FB
F8
E9
F3
FE
0D
10
05
F8
00
FB
F5
F5
FA
01
FF
FF
FD
F8
FB
04
FD
F9
FC
F7
D6
EB
F8
0E
FF
EF
FF
03
02
0A
FB
02
01
F6
FD
FB
F1
F6
FC
05
05
06
06
08
04
FB
FB
F1
CE
ED
FA
03
FA
EA
F9
01
F9
F6
F2
FA
FE
F7
F9
00
04
FB
05
09
12
0F
0E
0C
FA
EF
EC
F3
D0
F5
07
02
F7
EE
EB
FA
F8
E5
EB
F0
F7
E9
F4
0A
11
09
12
16
19
19
16
0C
FE
E1
E1
EB
E7
FB
12
09
F9
F4
F2
FD
EF
D9
DF
EC
F1
FA
0E
11
1A
1C
1F
19
12
0C
07
FE
F1
E5
E3
E7
E5
F9
0F
03
0E
FC
EE
F3
E9
D6
DD
EF
FA
FC
00
19
1B
22
26
1A
17
09
FD
F1
EA
E3
E9
FB
FC
02
0A
FD
F6
FF
EF
EE
E0
C9
E2
F1
F2
F1
F0
FC
07
0E
1B
10
06
FD
F1
EE
EB
F5
F6
00
0A
08
0D
FA
F3
0B
10
00
F4
DE
E1
DB
E1
E2
DF
ED
F0
00
0B
FE
04
F1
F3
F0
FA
FC
00
06
0F
0E
1B
0E
FA
05
1F
09
05
F0
F0
E8
DB
DE
D6
D6
DE
F4
FC
FA
F3
F4
01
FC
FB
FF
07
0C
1A
1A
21
0E
02
09
1E
04
02
03
01
EF
F2
E6
DA
CD
DB
F2
F3
F7
F9
FF
FE
02
FE
F9
FF
00
06
0D
01
11
F0
12
0C
11
0A
14
0C
03
F9
F7
F4
E6
DB
EA
F6
F7
06
03
00
0A
08
07
04
0B
0F
0F
F3
06
0B
EC
F5
10
05
0E
0D
06
07
0B
07
F4
F0
03
FD
01
0F
06
05
08
05
08
06
06
04
0D
05
01
FE
03
F5
17
0F
05
13
12
10
0D
05
0A
FB
02
03
FD
0A
0E
0E
09
0D
0C
0B
06
FC
0B
03
03
FD
06
02
0D
0D
08
16
15
0A
0D
0F
0B
FE
03
FF
00
01
03
0F
0F
0D
04
FD
FA
FA
0B
03
FE
02
01
04
0C
08
0A
0F
09
0E
04
04
09
00
02
02
FB
01
09
0E
0D
16
0A
FF
F8
01
0B
04
FA
FD
FC
0F
15
FA
08
00
07
0F
09
11
0C
08
05
04
08
05
0D
16
0D
13
0C
08
0A
0B
09
06
03
FD
FE
FF
06
F8
F6
FA
02
06
01
03
08
FC
FC
FB
F8
09
04
0F
07
03
0B
11
1E
07
0F
03
03
FF
01
09
F8
F1
FC
F2
F4
02
05
06
FB
FF
00
03
FC
0A
05
05
00
02
FC
FA
FA
01
03
F9
02
02
01
02
0D
15
FC
F5
FB
EE
FE
01
F6
EF
ED
FE
FD
04
0A
07
F4
F4
FB
F7
FE
05
01
01
FD
01
FD
03
FF
F9
FB
F7
F9
F0
F1
F1
F7
F4
D8
FB
0D
FC
ED
F4
F3
F1
FD
01
00
00
FD
03
02
03
03
01
01
04
03
01
02
FB
01
FD
FE
06
09
02
00
05
FD
02
04
FC
FE
FD
02
02
04
01
FF
00
02
02
03
01
05
03
08
07
09
04
07
10
0D
05
0A
0E
04
08
11
0C
03
03
04
04
02
02
04
FD
03
05
00
01
03
08
0D
0B
0C
10
0F
06
11
04
0C
0E
0E
0A
14
16
11
0A
05
02
04
FC
03
01
02
0D
07
07
F5
FC
00
FB
08
FD
04
03
06
05
02
FF
01
0A
13
FB
02
02
FD
00
F9
FA
04
FC
FC
0C
F4
F4
F2
F5
FC
F8
FC
FA
FF
F5
FC
00
FC
02
09
0A
08
FE
FD
FB
FE
E7
F3
03
03
FF
FF
0B
FA
EF
ED
F5
F6
06
02
0A
FB
F7
07
0A
0A
08
0B
06
FD
FD
00
06
0B
FA
F7
03
F7
01
07
06
F9
F4
F9
FB
FC
FB
F1
F7
FC
01
0C
0D
06
05
00
01
FC
F8
FE
03
F7
03
FE
04
FE
00
09
02
F6
E9
F7
FE
02
FD
F8
FA
05
08
0E
16
0F
11
00
00
FE
FE
01
FB
01
F9
F8
FE
F4
01
0A
02
FE
F2
F7
FD
F9
FB
F9
FB
05
09
16
1F
1A
0A
03
F1
F8
04
FC
02
09
FE
00
F4
F4
00
09
03
F6
F4
FB
EE
02
FC
F4
00
01
07
17
1D
13
F8
F4
F5
F8
FB
F9
02
0E
07
07
F0
00
05
01
0C
F5
F9
FB
F2
F7
FB
F7
FB
03
0A
19
12
02
EF
EE
F2
F8
FE
FB
00
00
FF
05
00
FA
FE
06
F7
E9
F5
F2
F1
F6
F2
F4
F6
01
06
06
F6
E9
EE
F7
FE
FA
EE
F5
F6
F5
FD
FE
FF
06
03
0E
02
ED
FB
ED
F7
EF
FC
FA
02
05
0A
FE
EA
DD
E7
F1
FF
F4
F0
EC
ED
F5
F4
F2
F7
0A
03
19
0F
FF
00
F5
F4
FB
F9
05
06
08
00
F3
EF
E2
EB
F5
F7
F1
EE
F7
F4
F6
FF
FB
00
01
0A
F8
04
04
F7
F9
FD
FF
FE
06
09
04
FF
F0
E8
E7
E9
F3
EF
E7
F6
F8
FD
01
0C
0C
14
0D
0B
FA
FD
05
FD
08
F6
FD
F9
06
02
03
04
F4
E7
EA
F6
F9
EE
E7
EE
FC
F1
02
14
0C
19
09
F9
F7
EE
09
03
08
F4
F3
F8
03
02
03
FA
F6
EF
F0
FA
FD
F8
F2
F7
01
FB
FE
10
1A
17
11
03
F9
01
06
FE
00
F2
F2
F7
FE
07
FD
F4
F3
F1
FA
F6
FB
FE
FF
FD
04
02
02
0E
2B
15
01
F6
F2
F7
03
FF
FA
F4
FF
F8
FC
FD
EF
EE
F0
F8
FA
03
04
05
FD
FC
0B
0A
02
07
20
03
0F
FD
FE
05
FB
03
FF
06
00
FD
01
F5
FE
04
04
09
11
07
05
07
01
0A
10
12
07
FC
14
05
09
01
FF
0B
04
05
01
02
03
06
11
02
10
19
17
14
13
13
0C
10
0F
06
12
12
0B
01
17
06
00
FF
02
11
13
0D
0A
04
FE
0A
0C
0C
15
1D
19
1A
15
0F
04
0F
10
10
15
18
14
0D
11
0D
04
04
F6
08
0E
09
15
05
04
0E
0C
0B
06
14
0B
11
11
09
07
11
0F
0C
07
09
0D
FB
12
08
06
01
03
FB
03
0B
08
0D
04
0C
0D
0D
0C
08
03
03
01
05
0B
FA
FF
01
FD
07
FC
FD
0A
13
FC
FD
FE
F7
F5
01
08
06
06
05
0C
07
F7
F8
FC
04
09
F9
08
0F
FE
F1
F9
07
FD
0E
09
06
03
04
01
FB
FC
FE
E5
EF
F3
F7
01
F2
F8
F2
F5
E4
F0
E9
F4
01
03
ED
FA
0E
08
03
01
01
FD
02
01
02
01
FB
F1
EC
EE
F7
03
01
04
0C
07
04
1E
14
FE
FF
1A
05
FD
0A
08
01
04
04
FC
FE
03
00
02
00
03
FE
06
FE
01
03
05
0B
06
F3
FC
FF
05
F1
F4
FD
FD
FD
FB
02
03
FE
00
00
FF
FC
03
FF
01
FD
FE
FD
03
FF
FD
FF
01
05
FF
FC
01
04
FC
FF
FC
00
02
01
01
04
FC
FF
00
03
01
FC
00
01
FF
F7
F5
F9
FA
ED
EF
F7
FE
05
00
F8
FB
F5
F6
FF
FF
01
FE
00
FC
FD
FE
FF
F5
F0
F8
FE
F6
FF
0B
0A
00
FB
05
00
09
0A
07
08
06
07
FF
F6
FB
F9
07
FC
00
FF
FE
0B
0D
0A
09
06
09
1F
14
1C
0C
12
05
FB
04
01
FD
F7
EF
FE
FB
F4
FF
06
03
02
00
04
00
0E
16
FB
FD
1A
17
15
17
25
1A
1B
11
10
0E
0D
0A
0F
10
04
0B
03
FA
05
06
10
FC
02
FB
0F
13
05
0B
0D
09
FD
09
16
19
13
0D
03
0A
0F
15
13
0E
12
10
06
03
02
1B
1E
00
FC
06
07
10
05
08
0B
0B
11
15
13
12
11
0B
09
06
10
0E
08
09
08
07
FB
06
11
20
18
00
FC
09
FC
00
13
10
0D
0B
1E
0F
0E
0C
0B
03
07
FE
00
FC
F7
F9
FF
05
0B
03
F7
19
02
04
00
FF
EE
02
09
17
12
08
0B
FF
03
04
03
03
FE
F9
F7
F3
F5
F4
FC
FC
FF
FB
F8
05
0D
02
F7
F5
FC
FE
0E
1F
13
04
03
F2
FD
F9
01
FD
00
07
05
F7
FC
F6
F0
EE
FE
F3
F9
00
0E
03
F7
FB
F9
0D
13
14
04
F8
FD
ED
F0
F7
01
03
03
FB
0B
08
FB
FB
EA
E7
EE
E1
EA
FC
0F
05
F6
ED
EB
0F
13
00
EF
EE
EF
E1
F5
FC
0D
09
11
08
10
0A
0C
01
F5
ED
DF
DA
DE
FA
0F
07
FF
F8
ED
0D
09
F1
E3
E5
F2
F0
FA
02
0B
0D
15
0B
09
02
07
05
04
F5
EA
E4
D6
EB
FF
04
0A
F5
F1
04
F9
E6
CF
E5
ED
F1
F4
FF
02
09
13
05
0A
02
04
03
00
04
FD
F5
F3
ED
04
00
0B
09
06
09
F0
CA
DF
E7
E3
E0
E7
E8
F5
01
0F
03
01
F8
02
F5
F8
00
FF
02
F5
F9
07
FF
09
03
0F
0D
F6
D6
DD
D9
D0
D7
E2
E1
EE
06
07
02
03
F7
FC
04
02
00
03
0B
0A
06
06
08
FE
01
1A
17
FA
E9
E7
D4
D3
D7
D3
C5
DE
FA
FC
FA
FC
FC
0F
0E
09
07
0D
0F
14
14
0B
0A
FB
0F
0D
1D
07
02
FE
EC
EA
D7
CF
C8
D5
E7
F9
F9
F7
0A
13
0F
04
0C
FD
08
0F
1C
07
11
02
00
0A
22
10
15
11
00
F3
EF
F1
EE
E5
EB
03
04
06
0B
05
14
0E
0A
09
09
12
10
04
0D
07
05
08
13
0E
19
14
10
0B
0E
0C
08
06
0A
0C
08
0C
08
05
0B
09
10
09
0D
08
09
13
0F
FC
01
03
14
11
18
1B
13
18
12
17
16
14
0B
08
06
07
0C
10
08
08
06
0B
07
00
FF
0A
0B
02
FF
FF
0C
04
05
0F
19
14
14
18
15
0B
08
02
FD
03
08
09
09
05
0A
08
10
0A
04
08
01
FF
03
04
10
0B
02
07
0A
10
0D
0C
07
01
02
00
FB
FE
05
0D
06
05
FC
FB
10
13
FE
09
FA
01
FE
12
21
0A
0D
07
07
10
0B
0D
14
0A
07
04
01
02
00
09
FC
FE
FD
02
09
09
01
0F
00
03
01
00
17
05
FC
03
0B
FE
01
FC
02
F9
FB
FD
FB
04
04
FE
F8
EF
F7
FF
04
09
07
03
05
00
01
0A
FC
F3
02
08
0A
12
06
01
05
11
13
0B
FA
06
04
FB
01
F8
ED
E9
E9
02
FE
FE
02
FE
FF
FF
F9
05
06
00
F8
F7
EC
F2
F7
F8
F2
E2
E6
F8
F5
F3
EA
EF
F6
FB
06
00
03
FD
FC
FF
FC
03
FE
04
05
FF
05
F7
EE
EA
ED
DD
D4
E0
DF
E5
D9
E5
EF
F1
F6
FC
FD
FE
FE
FE
01
03
FF
FF
03
00
03
FE
FC
FC
04
FE
FE
07
0A
0C
06
FF
FF
00
00
03
02
01
FC
01
04
02
FF
01
FD
00
FF
06
06
0D
07
08
09
06
07
13
0B
FB
1E
18
17
0D
15
13
0A
06
05
03
00
04
00
FE
FF
08
06
15
0D
0E
0C
16
1E
1D
20
17
1B
1A
21
15
09
0A
0A
0C
0E
14
0B
0D
07
03
01
FF
FD
0F
05
FF
FC
05
02
06
0F
07
06
06
17
0C
05
0A
05
FE
FF
EF
FD
06
09
07
F9
FF
00
01
03
13
EE
03
08
0F
0B
0A
0C
0B
08
03
09
01
02
06
00
FB
02
06
FC
F7
FA
E7
EC
04
12
FD
FD
12
F9
12
09
09
09
04
FB
F6
F4
FA
00
05
04
05
FF
03
03
05
10
08
08
FB
EF
01
0C
04
05
F8
09
04
F6
FD
FB
F0
EB
EE
F4
F9
F2
FD
08
FE
FD
F1
F2
F5
06
07
FE
F6
F5
F9
06
00
FA
02
F8
00
EC
EF
F5
E0
E6
F2
00
FC
01
0B
03
01
FB
F9
F6
F8
02
04
FB
F6
ED
FD
09
0A
FE
03
FB
FB
EB
F5
F8
EA
F3
01
00
05
09
11
0A
01
00
EC
FA
F6
FD
FD
F7
E9
EC
02
F5
FD
F8
02
09
F9
EB
EC
00
F5
F6
FC
FF
02
07
0C
0D
FC
F9
ED
F1
FC
04
FF
F8
F9
EB
E6
EB
00
FD
09
F1
EE
F2
F8
F7
FC
F5
FC
01
03
03
0A
0C
01
F7
EF
F5
FE
04
00
FF
F1
DC
E8
F0
FD
07
02
F0
ED
F5
FD
07
FE
FB
F6
F7
F9
FF
0D
07
FB
E9
EF
FF
01
02
FF
03
F9
E9
E3
F6
FD
02
F6
04
F3
F0
01
06
08
04
FB
F4
FC
04
05
FF
03
F4
F3
F6
FA
04
0D
0B
15
F9
E0
FC
0B
08
F5
02
EE
FC
02
FC
06
00
F2
FC
FC
01
03
05
02
F8
F7
F7
FB
04
0A
11
0F
04
07
12
02
FA
FD
FF
E8
FD
FA
FE
FD
FE
FF
00
06
0A
0A
00
FE
F5
F2
F5
F3
FB
08
05
09
19
25
0E
03
00
00
FC
E9
F9
FC
02
06
07
04
0A
10
0C
07
FF
03
F3
E9
F2
EB
FB
FB
F6
07
1B
12
14
FC
02
F7
F3
ED
01
04
05
05
10
17
1B
04
02
06
03
FD
F2
F2
EF
EF
FB
01
01
05
24
1D
0C
01
FD
F5
EF
F6
FE
F5
FB
06
11
1B
0E
09
03
08
02
FE
F1
F8
F6
F5
00
00
FB
00
24
09
18
FE
FB
F7
02
FD
F6
ED
FD
06
13
10
FD
FE
01
03
00
02
FD
06
FF
01
04
02
FF
01
26
02
17
0B
FF
F4
FA
FC
F4
F4
FE
06
0E
0A
FE
F7
00
01
0D
0D
0D
06
08
0F
0D
14
0B
FA
26
15
18
FC
F4
FF
04
05
F9
FC
05
04
09
0A
01
01
FB
01
05
0D
0D
13
13
13
17
08
05
FF
FD
16
07
00
03
02
12
10
04
04
0A
02
0C
0B
02
03
06
0A
07
09
0F
18
13
0C
0B
0B
06
05
01
06
06
FE
04
04
1A
0E
21
13
0E
0B
08
07
04
FD
FB
01
FD
00
02
13
13
0D
0E
05
FE
FB
FE
FC
FF
02
FD
FE
F8
FD
FF
0A
08
06
05
03
FD
05
F4
F8
F8
F6
00
09
0E
0D
04
08
FD
F6
FB
FE
FC
00
02
02
F1
E4
E6
F2
F1
F2
00
00
FE
E9
D6
E3
E2
E4
EF
F3
FD
FF
FF
FA
F9
09
0C
06
FF
03
02
00
F5
F2
E3
F9
F0
E2
E0
DB
DF
D9
CB
C8
C7
C0
CB
D2
DC
F2
EC
E6
F3
F0
06
04
FF
05
FD
04
FC
F9
F9
F1
F4
F4
EC
EA
EC
E9
E2
DC
DC
E0
E5
E3
DC
DE
E8
EC
F4
FA
FB
01
02
01
00
FC
03
01
FF
FD
FC
FB
F6
FB
FA
F5
F5
F6
FE
F9
FD
FA
F9
F9
FE
FB
FC
00
FC
01
FE
00
00
01
FD
03
02
FC
00
01
03
01
03
0A
04
02
04
FC
04
FF
04
04
01
FD
02
FC
FF
FF
FC
04
04
04
FE
01
07
03
00
05
06
05
0A
15
0F
0A
19
1F
1D
13
06
03
0B
06
04
FC
FF
02
04
02
01
09
06
08
0C
04
09
0C
1D
1D
1E
13
1C
29
2E
15
15
04
01
FB
04
04
08
0B
03
FE
04
00
FC
07
09
04
01
08
F7
F9
0F
07
FF
FE
11
06
05
14
0A
02
F9
EA
FA
F7
02
F7
F6
01
FE
02
03
0A
F3
FE
06
06
01
16
0F
0B
FE
06
0B
0F
09
0C
12
09
05
FF
EF
ED
E4
E6
F3
0C
13
FF
FC
08
05
05
FE
FC
FC
FA
F2
FC
06
08
FD
F9
FE
F3
00
05
08
03
03
F2
F7
FB
00
12
11
00
FA
EB
FA
EA
DE
E8
F2
F9
FB
F7
FF
01
07
06
06
03
FE
F9
F5
F6
F7
F3
FE
FB
12
01
09
FE
F0
ED
EB
E5
E2
EE
F4
F7
F5
F4
FB
08
0C
07
11
04
F4
F7
F5
F8
FA
FC
F4
F0
03
FE
13
F4
EB
F2
F8
F0
F6
FB
F5
FD
F9
01
FD
09
0A
0C
04
FE
FA
F4
F7
FD
FD
F0
F5
FA
FC
12
0B
F7
EB
F2
00
F1
FB
F9
FA
FE
01
0C
08
02
06
02
00
FE
00
F4
FC
FB
F7
F3
F6
F6
FE
FB
EF
F7
ED
F5
EF
F6
05
06
05
04
03
09
07
05
08
14
07
06
04
03
06
FF
F5
F0
EC
E8
E6
EC
FD
FB
EF
E5
E3
03
09
0A
08
FE
03
01
09
04
10
15
10
10
0A
0C
07
09
F8
EF
E5
E5
EF
05
04
F8
F0
F1
F4
14
14
08
FF
FF
06
FB
FE
FB
0A
1A
18
0C
14
0E
0C
F8
F8
EA
EE
EA
E8
F1
F6
08
EF
EC
FB
03
03
01
00
00
FE
F4
F8
FB
08
12
0F
11
0B
09
FE
EA
E7
E6
E3
E5
EF
04
0D
FE
F4
F3
04
EE
F1
FB
FF
F8
F8
F2
FB
F8
0D
07
05
0A
FC
F9
F2
DF
DF
E0
E9
F1
01
1A
09
FC
00
F5
F8
F3
E7
FA
FF
FC
F9
FC
02
0A
0D
10
FF
05
FC
ED
E9
DF
E0
DD
EC
F6
0F
00
14
02
FC
02
F9
F5
EE
F1
F5
FD
FF
0C
15
10
08
09
02
00
F2
EA
E1
EB
E6
E6
F0
FE
14
11
0E
FF
FD
FC
F6
EE
E7
EB
EB
F8
00
11
14
0B
03
02
FC
F4
EE
EC
E3
F8
F6
F7
F1
FA
11
08
1F
03
FD
FB
F1
E8
DD
EA
E3
F8
09
12
0A
06
03
FF
00
F5
F5
EE
F4
03
00
01
FA
F8
07
FE
13
05
F6
F0
EF
EB
E0
EA
E8
F2
0C
13
03
05
03
01
FA
FA
F9
FA
00
0D
03
0C
0C
FA
0D
15
1B
FF
FD
FE
EE
E7
DC
E9
F0
F1
FD
10
07
0D
03
0A
05
05
06
07
12
0E
03
0E
08
07
0A
11
08
05
FF
F8
F9
EF
EA
F2
F6
F1
FB
03
01
06
0D
0B
05
03
04
09
0A
08
0B
0B
06
01
03
F5
FF
FD
04
03
FC
F7
F1
F3
EE
F5
F8
F6
FA
00
0C
0D
09
0B
09
08
02
0A
0B
07
0C
02
07
FA
01
FC
FE
FC
FC
E8
EF
E4
E8
F0
F8
F4
F7
02
03
03
07
10
0B
0A
0E
10
13
19
10
0B
05
F8
FD
03
04
FF
F4
E4
E0
DE
DA
E4
E7
F3
F6
F5
F4
FB
0B
09
FD
06
04
0A
0A
02
14
0A
06
02
FC
FF
01
0C
F3
E9
E9
EE
E9
F5
EB
E9
EE
EF
00
0D
0B
11
12
00
FA
01
FB
F3
EF
F3
FF
FE
00
03
03
FF
05
07
FB
F8
01
FB
03
05
02
0C
06
17
0D
09
12
0E
01
07
06
02
0E
FF
02
04
FE
00
00
00
03
FA
FD
F4
EE
F4
FF
00
07
0A
F8
18
0B
04
FD
06
07
00
F9
F6
F8
FC
03
00
03
FF
01
00
01
02
FD
04
00
00
FD
FE
00
F8
F6
F7
F8
FC
03
FF
FD
FF
03
03
FB
FE
01
02
03
FD
00
04
03
FF
F8
F4
F7
F7
FA
F9
F7
F7
F8
02
EC
F7
ED
EA
EA
E7
EB
F0
F7
04
FE
04
01
03
04
F8
0B
01
F5
F7
F2
E4
DF
E1
DB
ED
E0
E3
DB
E9
EB
F2
EE
E9
E4
F2
EF
F6
FE
00
00
01
01
F6
0D
FA
00
F0
F6
F8
F4
FA
02
F9
FA
03
04
06
05
FF
F8
0C
02
F4
F3
F9
00
06
FF
02
02
F2
13
FD
F6
EF
00
F8
FD
F9
03
01
03
FE
03
02
FD
00
F5
00
FF
FA
F5
07
0B
15
FD
01
FE
EE
01
F3
FE
02
00
05
0F
07
12
0A
08
03
00
F9
FD
F4
F4
F9
F2
F0
DE
E6
FE
01
F2
FF
FE
15
06
FF
00
02
07
07
05
03
08
07
0C
07
08
05
05
0A
01
01
FE
FD
FA
ED
F6
F7
F8
06
00
0B
09
F3
F9
05
FD
FE
05
0B
07
0B
08
00
0D
05
0B
09
05
FE
F7
FE
0D
0A
01
F1
F8
0F
04
04
0C
F1
03
06
0A
0E
0C
05
09
09
09
08
12
13
0D
14
06
02
07
09
0D
22
19
10
0D
00
12
04
0E
FD
03
12
09
05
08
08
04
05
09
0A
07
13
11
13
0E
0A
0D
03
0F
20
26
19
11
06
09
0D
07
0F
06
0D
09
07
0F
FF
01
05
07
12
0C
11
0B
0A
07
0F
07
15
0C
0F
20
0B
09
08
05
18
15
09
05
11
0B
07
05
04
05
0B
0D
0D
0A
0E
17
08
06
0C
0A
10
05
0C
0D
1A
07
05
06
0F
1C
10
14
12
0B
FE
FE
02
01
FD
08
02
0D
04
07
0D
0B
07
02
0B
0C
F5
F2
0A
FA
F0
06
0C
19
22
0D
0A
0B
FF
05
05
05
00
00
FC
FF
FF
FE
07
0E
08
05
07
FA
EF
FB
EB
F2
F7
08
0B
04
18
0C
05
0B
05
07
05
06
00
00
F4
FA
F5
06
0B
0F
0D
0A
06
05
02
EE
E0
EF
F5
04
FA
F7
0F
07
08
07
02
FD
04
00
FB
EF
F3
F9
FB
0A
14
0D
0E
07
0B
05
FE
E7
ED
EA
01
08
09
F8
0A
06
04
03
0C
FE
FB
F5
FB
F1
EC
F6
FC
0A
09
03
0C
FC
00
FD
FC
D8
E4
F1
02
03
05
00
07
FF
FF
06
07
04
F6
FD
01
F5
F4
04
08
11
04
05
08
FF
FB
05
00
DE
F3
FC
0D
06
0C
F6
FE
03
06
04
02
02
05
0A
00
F7
FE
00
05
01
07
02
09
FB
01
FC
F5
D2
FC
EE
F3
10
07
02
F9
03
05
00
FF
F7
FB
FB
02
FA
FF
FD
FB
02
00
08
00
FE
F9
F5
04
E1
EA
F0
FD
0D
F6
F6
FB
05
00
F5
01
F7
F6
F3
FB
01
F9
F6
FC
FE
F8
FF
FE
F5
FA
F5
FE
FD
EB
FB
01
FC
EF
EC
F9
00
03
FF
FB
F7
F3
F6
F9
F5
EE
F7
FC
F6
F6
F7
F6
F7
F6
F8
F2
F8
F6
01
02
00
F4
F0
F8
F3
05
FF
F9
F5
FA
FB
F8
F9
FE
FA
02
FE
F9
F8
F7
F3
03
FE
FE
FA
FD
05
02
FD
F6
06
07
FD
03
02
00
FA
04
03
FD
FD
02
03
05
FE
FE
F6
F6
F0
F6
FE
0D
03
FB
01
03
00
04
17
21
26
12
18
0C
06
13
0A
09
0B
08
0C
09
FC
F8
00
FF
F4
F5
00
F3
EE
F6
FE
FE
02
04
04
11
1D
0A
0E
10
16
1E
1B
0C
07
10
06
0C
05
06
11
06
04
FD
F8
02
FF
FE
02
FE
FC
FE
04
FE
0A
11
1F
26
29
22
1D
25
2E
34
16
26
2A
22
17
22
1D
1D
0D
05
05
04
01
04
04
FE
04
F8
FF
07
0F
10
13
1A
13
15
13
23
16
18
12
1A
11
13
16
14
02
01
04
FD
03
04
FD
03
FF
04
00
04
00
00
FF
FC
04
04
03
F5
FD
01
02
03
FC
FD
00
FF
FD
03
03
04
00
FE
02
FF
FF
05
07
0C
0A
0A
07
0C
06
01
08
F8
FD
F6
F8
15
10
14
0D
0A
04
03
00
FF
FE
03
02
05
F7
F8
04
09
13
0E
03
0A
11
0A
03
0B
0F
0A
0C
11
0C
07
0C
17
15
F8
F7
03
00
FF
02
F1
F5
07
0B
11
13
17
0C
0D
0D
0F
07
06
0B
04
04
11
0E
08
13
15
1A
0B
F8
01
02
02
01
F6
12
0D
0A
09
06
11
04
06
02
06
03
07
07
02
FF
FE
FD
01
00
FE
FB
02
04
0E
0F
04
03
02
03
12
05
01
0B
07
07
FE
09
0D
08
04
02
FC
05
00
04
06
FA
F3
F4
06
0B
14
11
FC
04
08
0D
0D
FC
04
08
05
10
08
11
0F
04
07
0A
01
04
04
03
01
FC
EE
F8
06
17
04
0A
01
04
FD
02
10
F9
F9
02
04
04
05
05
0A
02
09
0E
00
00
02
FF
FB
F9
F4
F6
03
06
FC
0A
F3
F3
F2
05
03
02
FF
03
05
00
00
09
06
09
FC
FA
01
FE
01
FE
FF
06
00
F8
03
08
0C
10
FB
F9
FB
FC
11
02
0A
FF
04
01
06
02
FF
05
03
04
FC
FD
F6
01
FF
0B
0B
03
00
13
0B
F4
FB
FA
EE
06
08
01
07
00
01
05
08
02
FF
06
0E
F8
FD
F7
FE
09
08
00
04
09
05
02
01
F7
FB
EC
04
0F
14
0D
03
FD
00
03
FE
05
09
12
18
05
07
FF
08
04
08
06
08
0C
0B
0E
16
05
02
FA
FC
14
13
12
FF
01
FB
FF
FE
FE
FF
0D
1B
13
0B
07
03
01
FE
02
02
0D
01
09
01
02
F3
F8
F1
04
0C
04
FD
F9
FB
FC
FF
FA
03
13
17
17
15
00
01
02
03
FD
FE
FE
FB
F2
F1
F3
FA
00
F7
08
04
F8
F8
F2
F9
FC
07
06
01
15
13
13
10
08
00
01
03
05
F8
F7
EF
F8
EC
F4
F6
0A
F3
FE
02
FF
04
F7
FF
FF
07
0A
04
12
1D
0F
0C
0B
06
09
09
06
02
FB
EC
FE
E4
ED
04
0B
0C
01
04
FD
04
02
FD
04
05
04
04
0E
0A
01
03
08
0C
0B
FB
F4
FF
FA
FB
FD
E2
F4
04
0B
FB
07
FF
FB
03
05
03
01
FC
00
04
08
06
FE
00
05
08
0A
FF
F8
F2
FB
F9
EF
EA
F2
11
0C
06
02
F4
02
0D
04
FD
02
FA
00
05
0F
07
07
06
0D
07
06
01
FD
FA
F7
F3
FA
02
F0
FC
FC
F7
FB
FA
02
00
02
FD
01
00
FE
FB
02
05
01
04
0B
07
0D
00
00
FF
FF
FB
F6
E7
EB
02
FB
EF
F6
F6
FD
02
06
03
02
01
EF
F3
01
09
0A
03
00
05
07
02
02
FE
06
01
FD
EB
F7
FC
F9
F0
F3
F5
F8
00
05
06
FB
F9
F9
03
0D
07
04
06
06
FF
04
03
F8
F6
F5
F1
F5
EF
FF
FF
08
00
FC
00
F3
F8
F9
F7
F9
FA
FF
02
02
05
06
02
00
FD
FD
03
F9
F9
FF
FC
FA
FA
03
FF
FC
0C
10
09
FD
F9
F2
FA
F2
F4
F3
FB
FC
02
FF
01
FF
08
02
09
F9
03
11
0F
F5
F7
04
FC
FC
05
18
14
0C
08
08
08
F9
05
06
03
05
FC
00
0D
FF
FD
07
0A
F6
01
09
F5
F0
F9
02
FF
02
0F
FC
FB
0D
1A
1B
1C
16
21
1A
1B
19
1E
0E
1B
12
17
1E
18
08
F2
F6
FE
03
FF
FD
FF
01
03
04
01
06
11
1A
1A
26
22
28
26
2F
33
1B
24
2B
25
17
1F
17
12
0C
07
F8
03
FD
FF
04
02
03
F5
F5
06
04
06
05
05
10
13
00
18
0F
12
05
0C
10
08
07
00
F8
00
00
00
FD
03
FF
FE
FD
03
02
FC
00
00
01
02
FD
09
06
06
03
FD
FE
FC
00
04
02
FF
04
04
03
02
00
02
FC
03
FD
02
09
08
07
10
05
0D
0A
14
0B
F6
09
1D
29
18
19
16
11
08
09
02
FF
FC
00
04
04
08
FE
0D
0A
0F
0E
15
0F
10
15
0C
0C
0E
0B
0B
0C
1A
0A
06
0F
0F
0F
FB
F8
03
01
02
00
F7
01
08
01
11
0A
09
1A
11
11
0F
0F
0E
06
06
FC
02
06
FA
08
12
16
0B
F8
02
FD
FF
FC
F8
F3
FF
04
08
09
0B
15
17
06
0A
00
0A
00
0E
0C
0A
0A
FF
FF
FD
FD
05
06
11
0F
01
FC
0D
FE
02
EB
F5
FE
F7
F9
08
FF
06
FE
FE
F8
FA
00
02
09
03
00
FA
0A
15
0F
15
14
FD
FF
00
EE
00
F6
F5
06
FD
FB
FF
01
05
FF
00
F0
F2
EC
F1
F6
EF
EB
F7
00
10
1C
0B
13
03
F3
F6
F2
FA
F9
F6
00
08
00
01
03
02
FF
FA
FD
EE
E7
EC
EE
ED
FD
FD
F2
02
15
01
13
08
F3
FF
F4
F2
F5
02
00
FF
FD
02
06
02
03
F8
F1
F4
F2
F1
FC
FE
F9
F3
F2
FB
FD
0C
0B
FC
ED
FC
FD
ED
FE
01
03
02
00
03
04
03
FA
F5
ED
FC
F4
F6
00
FF
FC
F7
FA
05
08
FF
F7
FD
F9
EF
FD
F3
FF
10
0B
02
01
00
00
04
F8
F3
E8
EF
FD
02
00
06
FA
F0
01
0D
FE
01
F2
FC
FD
EB
F8
F4
03
08
08
02
01
01
FF
FF
F8
E6
E6
EE
F6
FE
0C
FC
F5
F0
08
13
0F
04
F6
F5
FE
EC
F5
F4
07
09
0B
03
01
04
04
05
F9
EA
E7
EA
FB
F3
05
FB
FC
FB
07
10
FF
ED
F1
0A
F9
F0
F3
E5
01
05
06
0B
05
06
03
04
04
F9
F5
F8
F5
FC
05
02
02
07
05
06
00
09
0F
07
F2
FA
FF
E7
FB
04
06
00
00
01
0B
01
04
03
06
01
F8
F4
F1
F5
FD
0A
00
FD
0E
16
0A
09
FD
06
09
F8
FD
07
05
01
FD
FA
06
0F
11
18
0D
0D
F8
F2
F3
F4
FB
FD
FF
05
23
04
10
FA
F3
FA
08
F2
FB
FB
FA
F9
F6
FC
07
0A
16
19
09
02
F6
FD
F7
EF
FD
FD
0C
08
2F
19
12
01
F4
FA
05
F3
FB
F9
F2
FD
F2
FA
08
11
11
10
04
00
F9
FC
FC
FC
02
FE
01
FA
16
02
1C
00
F5
F9
FF
F8
F9
FD
FB
F3
F4
FA
FF
14
12
07
06
FF
00
03
FD
FD
FB
FA
06
08
16
FB
0F
01
F8
03
EF
F9
F1
F5
FA
F3
FD
06
12
14
11
05
0B
0A
0C
08
FA
03
FE
04
14
FD
17
11
02
02
FD
0D
FB
F6
F6
EE
FA
FF
0D
19
16
11
10
08
0F
09
07
10
05
02
0B
0C
0A
FB
0F
0E
03
FC
02
02
0F
00
EE
F6
FB
00
13
12
15
0F
15
11
0E
03
14
0E
03
04
FF
0C
11
01
09
07
02
FF
04
06
14
0D
F7
F2
F4
F9
03
FF
06
09
0D
08
04
06
0A
09
02
00
07
09
08
FD
FF
F7
FB
FE
FE
01
02
06
FA
E7
ED
F4
E8
ED
F3
02
FE
01
01
06
08
0F
10
14
14
19
16
FA
07
EF
00
02
02
FD
F6
F1
EC
DF
DD
E5
E5
EA
F2
00
FE
01
04
0C
0B
16
10
06
FF
0F
09
0E
0C
00
FE
FD
FE
0C
02
F8
EF
F0
F1
E6
E6
F9
FC
FC
07
04
0A
08
10
09
03
FE
FD
00
05
07
03
05
FD
02
02
01
FF
02
FB
F9
FC
02
F4
FC
0D
14
00
FB
00
04
06
F9
E8
EF
F2
F6
FD
F9
04
02
00
FC
FD
04
02
FB
FD
F9
F6
F7
FA
F1
02
03
F1
F7
07
03
F1
EC
06
FF
F3
F0
F9
FC
FD
FD
FE
02
04
02
00
FF
00
02
FC
04
FD
03
04
02
FE
0B
04
FE
FC
FF
FF
02
01
04
FE
03
FE
03
FD
FC
03
00
02
FC
FE
FC
FA
F3
F8
FF
FA
F9
F0
FA
01
0A
05
F9
F8
FE
FE
FA
02
FD
03
02
FC
FF
FF
02
FB
F8
FC
F8
FC
01
09
01
00
FD
09
07
FF
01
04
06
FE
FE
F8
F2
F5
FD
FE
01
02
FC
04
FE
07
03
FA
02
01
03
0D
0B
00
08
06
0A
08
0A
06
08
03
00
01
F0
E7
F8
FB
05
04
03
F7
FA
00
FF
FE
15
14
09
0E
18
0A
0D
08
FF
03
04
07
04
FF
FD
FB
FD
03
05
0B
03
F9
01
01
FF
10
08
02
0D
03
FE
08
13
0E
0E
0A
03
00
06
06
00
00
0A
FE
0A
02
FE
06
FF
F5
03
FC
FA
00
08
02
09
00
FB
05
FE
FF
03
04
01
03
09
03
0F
0B
0A
03
02
FD
05
0D
09
02
04
FF
FC
FE
03
09
08
00
03
F9
F7
F9
F7
F9
07
06
0E
0B
0B
03
05
02
05
FF
FE
07
08
04
FF
FD
F4
F8
03
FA
FE
F8
F9
F6
F1
F0
F0
F8
01
05
09
0A
04
04
04
FE
FF
04
08
09
05
06
01
FA
F8
F9
FA
F5
FA
F4
F3
EE
F1
ED
F0
F4
F2
F8
00
FB
00
FC
FE
FE
FA
03
09
03
0A
0E
FF
F7
FA
F7
F1
F1
F4
FA
FA
F3
EB
EB
ED
E4
E3
E4
EB
F6
F8
F3
F3
F5
ED
F4
05
09
0A
06
FE
FB
F9
F9
EF
F0
F2
F5
F8
EC
F0
EC
EC
E6
E6
E9
EA
F1
F8
F9
F1
E7
DC
EB
F1
FC
03
00
FB
00
FE
F8
F4
F6
FA
EE
F3
F2
FB
FC
FE
FF
F2
EE
EC
F7
FC
04
FB
F1
E0
EA
F2
EB
02
FB
04
FB
FA
FC
03
02
02
FE
F7
FF
09
06
0A
07
08
FA
F1
F5
FD
03
05
F8
F8
F5
F8
FC
06
00
08
FD
FA
0B
0E
04
09
0C
04
FE
07
07
0D
11
10
FF
F5
F5
02
04
00
FB
FF
04
00
FD
14
05
02
FA
F4
0E
09
12
13
09
09
08
0B
04
0A
0D
0B
F6
F3
F9
06
05
FE
FF
FC
01
08
00
0F
06
FB
F5
F8
09
FD
0B
0A
03
FE
01
FF
02
07
0A
02
F6
F9
01
07
05
07
02
05
FD
03
0B
12
04
03
F3
00
13
02
00
07
FF
F2
F6
01
03
FF
FF
F8
FC
05
04
0B
07
F8
FE
FD
F8
F7
0A
04
11
FF
F0
FB
06
09
00
06
09
01
FF
FC
F8
F5
F9
F5
FC
04
03
09
09
FD
03
F7
FB
FE
FE
00
14
FF
FD
08
01
07
FE
07
06
04
FD
04
04
04
FB
FB
02
09
04
05
02
06
02
FF
FC
02
07
11
14
00
FD
12
10
FA
06
01
FF
06
01
03
06
02
07
04
08
0B
06
02
02
F8
FB
FC
FF
02
05
0A
FF
01
FE
18
10
FB
F6
FA
F7
FD
06
05
04
07
01
08
0B
08
05
06
08
02
0B
04
0D
12
13
10
06
FF
F9
0F
18
06
F6
F9
F9
01
00
01
08
04
FE
02
03
0A
05
05
07
0A
04
0E
11
20
12
06
02
01
03
0A
04
0A
07
FD
FE
FF
FE
03
0B
08
02
03
06
FF
03
02
FE
05
0C
15
13
13
0D
0B
01
FD
FE
F3
F6
F5
FE
01
03
00
04
F6
02
0A
0B
0A
03
02
07
10
02
0B
0A
11
08
0F
0E
05
01
FC
00
FE
00
FF
F9
F6
F5
F7
F4
F1
F8
F5
F8
F2
F9
F7
00
FF
02
05
01
0A
15
06
06
07
03
03
03
01
FF
01
00
FE
F9
F6
FF
FD
FA
F7
FB
F5
F1
F5
F8
F8
FC
07
07
06
02
01
FF
FF
02
FE
03
FD
01
05
01
FE
F8
03
00
03
03
03
02
F7
FC
FA
F9
FA
FE
02
02
01
FD
FC
03
03
03
00
01
03
01
FD
04
02
FD
02
FC
FE
03
00
FF
01
04
FD
FE
00
FC
00
FD
FB
00
FC
02
00
03
FE
04
04
FF
FF
FE
03
FF
FF
FC
FF
00
03
03
04
04
00
FC
FE
03
02
FF
FC
01
02
FF
04
01
03
02
FF
00
04
FC
01
FF
FE
FE
00
01
01
FC
00
FC
01
04
FE
02
03
FE
FB
FE
FF
FC
04
01
01
FC
FF
FE
02
FF
FD
02
FC
FC
03
FC
FD
01
01
FD
00
FD
01
01
03
FD
00
FC
03
00
04
02
00
FC
01
FE
FC
04
FD
04
FC
FF
FB
01
FC
02
01
00
FE
01
FE
FF
FD
00
01
01
03
FD
FC
00
03
FC
00
FF
02
FD
03
FB
03
FD
02
FF
02
FC
FD
00
FD
FE
FD
FF
FB
03
FD
FE
02
01
FD
04
FF
FF
FD
FC
04
03
FF
01
02
00
FB
FD
FB
02
FC
FD
03
00
FC
04
FE
02
02
03
FC
01
FC
FE
FC
00
00
FE
04
03
FC
02
04
FC
01
00
FB
FF
FF
FC
04
FD
FC
FC
00
03
01
FB
03
FF
02
FD
03
04
FF
04
02
02
FB
FD
FE
FF
02
FD
FF
02
FE
FF
02
02
00
00
FD
FC
FB
00
FE
00
02
FE
01
04
04
02
FC
03
01
FF
02
FB
FD
FE
FB
FC
03
00
03
FC
01
01
FE
01
FD
FD
03
FD
FF
01
FD
03
02
01
04
FC
03
FC
00
04
FD
FD
FC
FE
FE
FD
FC
01
00
FD
FE
01
FC
01
04
01
FF
FC
FE
FC
00
01
FE
02
02
FF
00
00
01
FC
04
FD
FC
FB
FB
03
03
01
FB
FB
FF
03
01
00
02
03
03
FE
03
04
FC
FF
03
FD
03
01
01
05
00
00
01
00
FF
01
FC
FE
FB
02
03
FE
FC
FF
01
FE
FC
FD
01
FE
00
FF
FC
FD
FB
FE
FF
04
FC
FF
04
FE
02
01
FB
FE
FE
FE
02
01
03
FD
02
FC
FC
03
02
FF
04
03
FF
04
02
04
FB
FE
FE
FE
FF
FC
FC
00
01
FB
FF
FB
FF
01
01
FC
FE
FF
FF
00
FE
01
FB
FE
00
FD
03
FF
03
01
FB
FC
FF
01
00
00
00
FE
FC
FE
01
01
03
FF
04
FF
02
FF
FD
FD
FD
01
FE
FB
03
FD
03
01
01
03
00
FF
02
FF
FC
FC
FD
FC
01
FE
FE
FE
FE
04
03
FD
FD
FC
02
01
03
FC
FC
FF
FD
FE
FF
03
FF
00
00
03
00
FE
FD
00
00
00
01
00
FC
FC
02
04
FC
FC
FD
FC
01
FB
00
FC
FF
02
00
FD
FF
00
03
FB
03
FB
03
02
FA
FC
FC
FF
FE
FE
00
FF
FF
00
00
FC
FE
FB
FF
02
01
01
03
FC
FB
FB
FD
02
FD
FD
FF
03
FF
03
01
00
FC
FE
03
FC
FD
FF
04
04
FE
FF
02
FA
00
FC
00
01
FD
FD
FD
03
FD
FB
00
FB
00
FF
00
FB
FC
02
FE
FC
01
01
03
00
01
01
02
02
FE
FC
00
FC
02
03
03
FC
FD
FA
03
00
FD
04
FC
00
FE
00
04
FD
03
01
00
FD
00
FB
FE
03
FE
FC
02
01
FC
00
FC
FB
02
01
FE
03
03
02
01
00
00
00
00
FE
FD
FD
FF
FF
FE
FE
FD
FD
FB
00
FE
04
02
02
FE
FD
FD
00
03
01
03
00
02
FC
02
04
FC
FD
FF
03
FC
04
04
FF
FC
01
01
02
FF
FD
FD
FE
FB
FD
03
02
03
FE
FD
FD
FE
FF
FC
00
FD
FC
02
04
FE
FF
FE
FF
01
03
FF
FE
FF
FE
01
FE
FD
FD
FC
04
FC
FF
04
FE
FC
FE
FD
FD
FD
02
00
01
FF
01
FD
FD
FC
FD
02
00
FB
FB
FC
FF
FC
FB
00
02
01
FC
FF
03
03
FF
FD
02
FF
01
01
04
03
01
FC
01
04
03
04
FF
00
FC
02
03
FD
FD
FF
03
FF
FD
01
FD
FF
02
FD
04
FE
FD
00
FD
02
FC
03
04
FD
03
FC
FE
03
03
FC
02
01
00
03
02
FF
FF
FD
FE
03
FE
02
FF
FF
00
01
02
FE
FE
F5
F1
EC
F9
00
F5
F9
F3
FD
03
FC
F1
FC
02
FF
FC
F9
F7
02
01
FF
00
FE
01
FC
FA
F8
F0
F5
F3
EC
F7
FB
EE
E2
E1
E3
FA
FE
F7
FB
06
05
FC
FD
FC
F8
00
03
03
FC
FE
09
F6
F2
FF
01
FC
00
03
FF
F8
00
FC
F4
FC
F0
EC
F2
F6
01
F8
FB
F5
04
FD
FF
02
FE
05
04
16
F9
FC
04
04
FB
FC
FC
04
04
F4
F2
F5
F8
F7
FA
F9
F1
F5
EE
EF
08
09
0D
FD
FF
FE
04
08
FD
11
10
02
FA
00
FA
01
F8
F2
EC
F3
F0
F0
F1
F5
F1
EC
F0
F1
FC
12
1B
03
00
05
0F
13
0C
09
0E
FD
07
02
0C
05
01
FD
FE
FC
F9
FD
FE
F6
00
00
F8
FC
0A
29
1D
11
FF
18
0D
12
05
FF
0B
07
08
0E
0B
0D
0E
0C
0A
09
0F
06
00
02
09
FF
FC
02
0B
1F
15
11
F3
0E
07
03
FB
06
07
0F
07
07
0D
12
0C
11
11
14
17
0E
08
03
FF
FE
02
FC
07
12
17
0C
FE
07
04
03
09
09
11
0D
0D
13
14
11
18
12
1B
18
09
0D
07
FB
F7
FD
02
FE
0C
11
03
08
02
06
FD
0D
0B
0C
0F
14
0E
0E
10
12
09
13
12
0A
04
F5
FC
F4
FB
FB
FD
F3
FA
15
0A
0E
08
02
12
16
1B
12
0A
09
08
FF
03
01
05
05
0C
FF
F3
FF
FD
FA
FD
ED
03
F5
E9
06
0A
11
08
06
0C
10
14
0D
09
00
08
FD
04
FE
FA
FE
0A
00
FB
01
05
FE
FC
F2
F6
F2
D6
EC
FF
06
F7
01
10
08
07
04
FC
01
FF
FC
FB
FA
FC
0A
14
01
FF
05
FF
FB
FF
FB
EF
E9
EC
F1
FB
F6
03
06
13
14
01
F6
F8
F5
F3
FD
FE
FB
FB
07
0E
09
02
04
00
FC
FA
01
FD
07
07
F5
01
F9
01
0C
01
FF
01
F3
F4
EE
F2
F8
F4
F8
F6
FA
06
0B
01
07
0C
01
0D
08
06
0B
07
EF
01
FD
02
06
11
FD
FB
F4
F0
ED
EF
F6
F3
ED
F2
FE
FE
FE
FC
06
07
06
05
0A
07
08
0A
EA
01
05
02
0E
0C
09
FB
F6
F6
F9
F9
EC
EC
EB
E7
EC
F6
02
05
0A
04
05
05
01
FC
02
03
EA
08
FD
0E
0E
0E
09
08
FC
FC
FA
F7
F4
F7
F3
E2
EC
F8
04
07
0D
02
0A
0E
01
03
FC
F7
F5
0C
0A
05
0E
0A
03
04
FF
FD
FC
03
FF
F9
EC
ED
FD
00
04
04
02
FE
06
0C
02
FD
F9
0E
03
E6
F5
01
FB
F5
03
02
02
03
01
00
FA
F7
F6
F3
01
06
01
01
07
FE
0B
0D
02
FE
03
05
FF
F3
06
FD
09
F6
F9
FB
FF
FF
04
F7
F0
FB
F8
FD
FE
FC
FE
07
FE
00
09
06
05
FE
FF
F5
FB
EE
00
05
01
F6
FD
05
02
00
F9
F5
F2
F9
FC
FE
F1
02
03
FF
FF
02
04
05
F7
FF
02
FA
F4
EF
FF
FF
02
06
10
16
0E
03
FF
EB
F7
04
FF
FA
FE
FA
FC
F9
F9
F5
F7
02
F3
F5
FD
04
F0
FD
01
FF
03
0A
16
28
1C
0B
07
FD
F8
06
00
FA
FE
FA
F8
F6
FB
F5
FE
04
FC
FE
04
FC
EF
F7
FC
02
FD
FE
06
0E
1B
15
16
19
0E
0D
0D
1C
0F
0F
11
12
10
11
1B
0E
0F
0E
0D
18
FC
FD
02
FF
03
FE
05
F4
FE
FF
0B
18
19
1B
17
15
23
28
1E
29
2B
2A
2E
24
1F
1D
10
07
09
FC
FD
03
02
01
05
0A
04
0F
0F
10
09
19
0B
0A
20
1C
06
0F
13
16
07
03
11
0F
0D
FE
FD
FF
FD
FC
02
01
FE
00
FF
03
FD
FE
00
03
FD
01
FF
02
00
FD
FE
04
FE
FD
01
01
FD
FE
FE
FD
01
03
FD
04
03
FD
FE
02
03
06
FE
02
03
FD
00
FF
04
F8
FA
FA
FD
FF
01
05
00
01
01
02
04
02
01
03
03
FD
01
02
05
10
05
F9
F5
F8
FA
F9
EE
F7
F1
F7
FB
FD
F9
FD
FC
04
07
FF
FD
FF
01
02
FF
FB
F2
F1
EF
FE
06
03
F2
00
00
E8
EE
EA
ED
F6
F7
05
03
04
FF
07
0C
09
FC
FD
F8
00
F1
E7
E4
F3
F8
F7
08
04
0B
0C
FD
01
05
05
FD
05
FF
09
0B
03
06
04
FE
03
00
02
FC
0C
EB
F2
F1
F9
FE
F8
FC
05
0F
0A
0B
0A
09
07
11
08
06
17
14
0D
01
0A
1B
11
F3
FF
FC
02
E9
EA
F2
FC
04
02
04
0F
13
0C
0A
08
13
11
12
12
0A
0A
04
0A
05
08
18
05
02
FD
01
F8
E6
E9
F3
FE
03
0C
0B
13
0A
04
07
0A
0F
14
13
1B
0E
02
0A
12
02
02
06
09
04
00
03
FD
01
F5
FC
06
08
0D
13
12
0A
0F
14
08
04
10
0F
10
0C
06
03
05
04
09
03
10
16
FF
04
03
04
0A
FC
0E
11
12
13
12
10
0E
0C
04
F3
FD
F9
FD
06
03
F5
F8
06
0D
11
12
F3
06
07
02
03
12
09
11
0B
12
0D
12
0C
04
09
00
EC
EA
EA
F3
FA
00
F4
FB
04
0D
09
09
FC
FF
05
FC
06
11
04
06
01
06
02
07
05
01
06
FC
E8
E7
E8
F0
F8
F2
F5
F0
F2
01
0F
16
00
02
09
FE
01
FE
FD
FA
FE
FD
FB
FD
FC
FD
FE
FB
EB
E8
F2
F8
F5
F5
FA
F4
E9
FA
0A
14
FB
0B
04
05
01
E6
F2
F9
FF
F7
F9
F4
FB
F5
01
F7
F1
EC
F0
F7
FA
00
FB
EC
E8
F5
04
12
08
0A
F7
0A
F9
E7
DE
F1
F7
F5
FA
00
FC
F9
09
05
F5
F2
F9
F7
EB
F5
FD
F4
F7
FD
FC
09
0C
09
F5
F6
F3
E7
E4
F3
F9
F9
00
FD
F9
08
0F
03
F0
F0
F6
FB
F0
ED
F3
EB
FA
04
FF
FC
09
F8
F4
F0
F9
E5
E6
F4
F6
FB
FF
FD
04
10
14
07
FC
F9
FA
F0
F3
F3
FA
F7
0D
0E
13
0E
09
FE
F7
EF
07
F7
F4
F3
F6
00
FF
02
0A
0D
0B
04
F8
FC
F4
F0
F5
01
04
09
0D
0C
05
0E
19
03
F1
F3
FD
09
FB
FB
FA
00
FC
02
FE
02
04
FA
F6
F4
F7
F4
FB
0B
06
07
0C
06
F6
F3
0F
08
05
0B
FC
09
04
07
FE
02
FC
F6
F4
FD
FD
E8
F2
F4
00
00
09
11
0A
13
19
14
03
0E
01
FD
FD
04
07
11
13
11
08
08
FF
F9
F9
FC
F5
F4
FE
FD
07
0C
1A
1D
17
1E
1F
09
0A
04
FE
FF
FF
00
01
0F
0B
16
12
01
01
FF
FC
FE
01
04
0B
09
11
0F
16
21
18
1E
1A
08
0B
0D
FC
FD
FF
06
11
12
0C
0D
11
05
05
08
11
06
08
10
11
0E
15
14
12
10
0D
0E
13
08
09
05
02
FE
02
0C
0F
10
0C
FD
02
09
0F
12
15
12
14
0F
15
13
12
04
0E
0E
05
16
15
0D
08
04
FD
FE
03
04
FD
E7
F0
F9
F8
FF
0F
08
17
1A
16
18
10
0C
09
16
1E
0D
04
07
06
0A
FA
04
FE
01
03
F8
02
F3
F2
0B
05
0F
10
0D
0A
10
14
0D
16
18
12
11
22
07
07
04
09
15
FF
05
00
02
04
FC
FA
F8
F8
FB
FF
FE
FD
0B
12
11
0C
FF
0A
0D
0B
10
1A
09
03
0F
0F
02
03
FE
02
FE
FE
01
FD
08
05
FE
05
04
05
02
05
06
16
07
00
04
0E
10
FA
F9
00
07
0C
00
FE
04
FD
FF
FD
02
02
00
01
00
FE
FE
04
03
FF
04
01
03
FC
FE
01
00
02
FE
03
FD
04
01
04
05
01
FC
FF
00
04
FD
02
03
FD
F8
FA
FC
F6
F7
F2
0D
0D
EA
EA
FE
07
02
07
0C
02
04
00
FC
02
FC
01
04
FE
01
00
FB
FA
FC
EA
E8
E0
EB
EC
F5
F8
EA
FB
F7
04
FE
FC
F0
EF
F8
FA
03
FD
03
03
08
02
F6
FB
FD
FC
E6
DD
D6
D9
DD
CF
D4
DC
D5
F6
F0
EF
E4
EC
F7
E3
EA
09
01
00
FF
01
0E
07
FD
F4
FD
ED
EC
D5
CD
DC
E1
EB
E9
E9
E0
ED
E6
EE
EC
ED
F4
04
F8
FB
F6
F3
02
FE
0C
0A
09
FF
EE
EB
E8
E0
DD
DB
DF
EB
F2
F2
EA
ED
E3
E2
F4
E8
F9
06
FE
F7
F9
F3
03
F8
FB
02
03
E9
EB
F9
EE
E7
E1
E5
ED
F2
01
F6
F6
F5
F8
F5
00
FD
09
15
0B
F4
0B
FE
02
EF
03
08
FE
F5
ED
F5
E8
E8
EB
F0
F6
06
0B
FB
03
0C
01
03
08
12
13
1A
03
FE
07
F7
F0
E6
0A
06
09
0B
FC
FB
FE
FA
E7
DF
F9
0F
18
11
06
13
18
11
12
19
10
0C
16
0F
FE
00
FD
F3
F8
EB
06
FF
F1
F9
FF
F9
E9
DD
F2
1F
22
23
18
18
1F
1D
07
10
09
04
14
0F
01
10
FF
02
FF
F0
00
E5
E4
F4
F9
F3
E7
E6
03
22
24
1A
11
09
10
0E
03
07
05
13
28
25
0C
07
F9
F1
0E
00
FE
E9
E0
ED
F8
EA
F0
FD
0D
1A
15
10
FF
F9
F9
EB
ED
09
05
0F
1B
21
06
05
FF
F7
0F
02
F9
D1
DC
F1
F6
F2
01
0A
12
1B
15
14
FE
F2
ED
D8
DA
EA
E6
F3
05
08
0A
0D
07
FD
01
FE
ED
E2
EC
03
F8
04
14
0F
14
17
17
0D
05
F4
E7
D8
D4
DB
CF
D7
E7
F8
FC
F9
04
FC
07
FA
E7
F1
ED
F3
00
10
13
10
0B
15
11
0E
03
F9
F2
F3
F2
E9
DB
D8
E9
03
E3
F7
03
FC
04
07
02
EB
F1
F3
00
06
0E
08
16
12
11
0C
FD
00
FC
F2
F2
F5
ED
EE
E9
F0
EA
F0
FC
F7
F1
01
FB
FA
E9
E3
F2
FA
01
06
0C
16
10
03
F7
F1
EC
ED
EA
E9
DB
E1
E8
DF
E8
F4
00
02
F2
F9
00
F8
F7
F3
F6
06
0C
08
0C
1B
18
04
F1
ED
F6
EC
F6
F3
F7
F4
FE
00
F7
E8
01
08
F2
E0
F8
F8
F7
F9
FC
FE
02
09
14
1A
10
EE
E4
E8
EA
F1
E8
EA
ED
F6
02
02
11
05
04
0A
F5
E0
E9
E9
FB
FA
F5
F5
F5
04
16
12
04
ED
DF
E3
E9
F3
D4
E2
EB
ED
F5
04
03
11
FE
0C
F5
C9
D6
EA
FD
FF
FA
FA
03
07
0B
06
FE
EE
E9
EC
EF
EC
DE
E8
F1
F1
FD
FB
07
0E
FE
F9
EB
DC
D6
EA
F0
FD
00
04
03
FE
06
01
FD
F1
E7
ED
F1
E4
FA
FC
EE
F2
FD
05
F3
04
06
FC
EB
EC
EA
FD
FF
02
03
0C
05
FD
05
FF
06
F4
F1
EE
ED
E9
FB
03
00
08
0E
04
09
00
FC
FE
EC
E8
F7
02
06
08
0C
15
13
0B
0D
01
F9
F3
F6
F7
EA
E7
F4
EC
FA
05
06
09
11
FE
FC
05
ED
EA
F7
0C
F8
07
0D
15
07
06
00
F4
F0
EF
E8
F3
F1
F7
F4
FE
0D
0D
07
09
05
04
FD
04
FF
12
1A
02
E5
F1
F4
00
F4
F7
F5
F2
F4
EC
F1
F0
FC
F5
FF
12
12
0E
FC
01
00
00
00
01
04
03
14
17
13
05
F4
FA
F5
00
0B
00
F3
0C
11
05
FB
06
0C
FF
02
F2
04
07
FE
02
FC
FF
00
02
F1
F2
01
06
04
0B
17
13
17
0A
15
0F
0E
11
0B
0B
01
FF
02
03
FC
FF
FC
01
02
FE
FD
FE
03
FF
FE
02
01
FF
04
02
0B
0D
0A
0C
FD
FC
04
FF
FF
FE
03
04
FC
FE
02
FF
00
03
00
03
08
05
0F
08
08
0E
0D
0A
0D
0D
FC
1C
1E
14
1A
13
0E
11
0A
06
00
FE
FD
00
04
FC
09
12
19
0A
12
15
15
1E
20
1E
19
0B
13
1C
19
12
1A
1A
1D
14
0E
17
03
FA
04
00
FE
04
04
17
1D
02
18
0C
14
22
13
0E
0E
11
FF
FB
02
F6
FF
0C
FF
05
04
03
06
FD
0E
FF
FE
FB
FF
F5
0D
0F
14
07
0C
12
15
0A
05
FE
03
FC
FC
F7
03
04
F3
E0
E4
FA
F9
F6
02
05
02
FD
17
07
08
FB
FA
FE
FD
02
05
01
FD
FD
F8
00
FA
FD
FC
F8
F8
EE
ED
F0
FC
F4
17
0D
FD
01
0A
09
0B
00
FB
00
F8
F5
FC
08
FA
F6
F3
F1
F9
EF
FB
EC
F0
E8
E9
E8
01
00
07
01
02
0B
08
05
0C
F3
FC
FE
02
FD
05
09
FB
F4
F6
EC
EB
EE
F4
EE
E9
E7
E5
E4
FB
01
00
07
0E
09
FE
F8
FF
F8
FC
F7
FB
02
0F
08
F6
F4
F7
EE
EB
FA
EA
EE
FD
F1
F0
EE
F8
F6
F2
FA
F4
EE
F8
01
07
FE
F5
06
03
F5
06
00
FD
F5
FC
02
01
FF
FC
EB
F9
F9
F3
EA
FA
F5
F8
F9
EF
FD
F6
02
07
0F
FE
07
09
F5
FA
FC
F7
F7
03
12
10
0D
FC
EA
F4
FC
EE
FD
05
FD
F8
E8
F1
FF
F3
00
06
02
FE
FD
F9
F3
EE
FC
F2
F8
06
0C
13
03
FF
FA
F9
07
01
05
09
05
EA
FA
FC
FA
F0
EF
FF
FC
F3
F8
F0
EA
EF
FC
F3
00
14
0B
0E
06
FE
FD
F9
06
0A
FF
01
FF
F3
FE
0F
FC
F6
F7
F2
FC
F3
FC
FC
ED
FC
01
0B
12
12
06
05
FC
FF
FF
07
06
0A
10
10
02
0D
0F
FF
F6
FC
11
EF
FD
FB
F8
FB
FD
07
07
01
0B
0B
08
02
F9
03
01
0C
10
12
0F
15
13
21
0C
FE
01
06
15
06
06
FD
FB
F5
F6
F8
F9
03
0C
08
08
06
01
02
0C
11
11
06
0A
1C
17
00
12
01
FB
09
0F
04
0E
0D
FF
F2
F6
F0
F7
F6
08
13
06
0A
09
0C
0A
0E
14
0E
12
11
20
12
15
03
FE
0A
10
FE
0D
0B
FE
FC
F7
F6
F9
F4
03
0D
0F
0E
0C
04
00
07
0B
03
FF
FD
1A
05
1B
F4
F8
01
0F
06
0B
10
09
0A
06
FF
00
0A
11
1B
17
14
16
05
FB
F8
FC
00
05
05
2C
06
1B
06
F8
12
09
07
07
03
0A
08
0A
0E
18
17
17
1D
16
18
12
07
FE
FC
F7
08
0F
09
2A
20
18
02
F1
13
08
0B
05
FF
08
0B
0C
10
14
1A
18
19
0D
08
0A
18
05
06
00
02
09
0A
1E
18
09
06
07
0E
0B
FF
00
01
07
01
0C
11
0E
12
10
10
07
00
FD
0A
05
01
05
01
01
05
1C
1B
02
FF
02
0C
0C
01
FC
F3
F6
F9
08
01
FA
F1
F5
ED
EF
E4
ED
00
F9
FE
FA
ED
F4
FA
07
10
FE
02
03
05
F2
ED
04
F6
EC
F9
F8
F7
EB
E2
DD
DA
D3
D6
D2
DE
E6
F8
FA
02
FC
F3
0D
0F
FD
FF
FD
00
EA
DF
F2
F1
ED
E9
EB
E6
D7
CE
CA
C7
D7
D1
DD
E4
E2
F1
04
F4
E9
F4
0C
07
FD
FB
FD
04
F3
FA
EA
EF
F0
E9
D7
C7
C6
DC
C6
CF
D8
E8
EE
EC
F0
E8
E6
E7
E7
EF
05
07
01
FE
FD
02
FB
00
FE
FE
F7
EC
F1
E6
E3
E2
E2
E6
DA
EC
08
03
02
EF
EB
F9
F7
F2
FE
FD
04
01
02
04
FD
F3
F2
EF
F2
01
03
F2
EC
F2
F3
08
FE
02
FD
F6
FB
F7
F7
FB
FE
02
FC
FF
01
04
01
02
02
FB
FF
01
FC
00
00
03
01
04
03
F0
00
02
FE
02
FE
04
FF
04
03
FF
02
02
01
FC
FF
00
FF
06
06
0A
0B
0B
06
05
11
15
0D
F7
F3
FD
0C
13
0E
0D
11
0D
07
00
FF
FE
00
00
03
04
07
0D
08
06
0B
0F
06
06
13
0A
00
04
02
FE
0C
0E
07
04
0E
12
13
F7
F3
FE
FF
FF
00
F2
0B
0C
06
15
0B
0E
11
11
11
14
0B
0F
07
04
03
11
0A
03
17
17
27
0F
F7
03
FE
FB
00
F8
F9
F7
F3
F6
FF
0B
0D
1B
11
0C
07
0B
07
12
15
0F
0C
05
06
02
0B
19
17
13
0D
04
00
00
06
FC
E2
E9
02
03
03
0F
0C
13
03
06
00
07
12
04
0C
10
03
FE
FE
11
1E
1F
10
04
0B
06
F0
EE
EF
F2
08
05
0C
09
07
0C
01
05
08
FB
00
F2
FA
F7
F2
00
FF
0D
2A
13
12
01
FA
FA
EA
FA
04
F9
02
14
0A
0A
03
02
02
FE
01
F9
F7
F2
F4
F2
F8
02
05
12
17
0D
10
FF
EE
FA
F7
F4
F7
FA
04
04
06
02
06
04
03
FB
F2
FD
F8
F6
F9
FB
00
FA
03
0B
12
14
1A
FB
F1
FF
FB
EE
F4
03
02
05
08
FF
00
03
FB
F2
EF
FF
F2
EF
F9
02
FB
F2
FE
11
12
0F
F1
00
F2
F3
F6
F4
F3
FF
01
0A
04
04
02
05
FD
F6
EE
F1
F4
F8
01
00
FA
F2
05
13
05
0B
EF
FE
F7
ED
E7
F1
F7
07
03
07
0D
06
07
04
03
FF
F3
FD
F7
FA
00
FA
F8
F0
08
13
1D
2A
F5
FB
F8
F5
F6
EC
00
04
09
FA
0B
0A
0D
0B
11
FE
F9
FF
FC
F5
02
02
01
FB
08
0D
07
FC
F1
01
FF
F6
F2
E3
FD
01
05
02
08
09
0A
16
16
03
07
02
F9
FA
06
05
FB
FF
03
FE
F2
F0
FD
0B
FB
F1
EA
E1
F8
FF
01
FF
FE
07
0E
0B
09
0C
0B
03
FD
F7
F3
F9
00
00
FB
F5
FD
F3
F4
02
F7
06
F2
E8
EA
FC
FF
FB
06
0C
0E
13
11
0C
03
03
F8
F8
FE
F5
00
00
FB
FF
0E
F2
F7
F9
FB
EC
05
E6
EB
F8
F6
FB
FF
04
0C
14
0B
04
00
FF
F8
FE
04
F7
FE
FF
0A
04
1D
F7
F6
03
FB
F9
01
FC
F9
FB
FC
FF
00
02
0B
07
00
F8
F8
F7
FE
FF
04
00
06
04
07
FA
FB
EC
F4
FA
F1
FD
0B
0A
04
0D
FB
FD
00
FE
03
06
FD
F6
FD
00
FD
00
01
05
01
F9
06
00
F4
EE
F9
FF
ED
FE
08
0B
13
08
07
06
FE
00
03
03
01
FF
06
FF
03
05
01
08
03
0A
0D
FA
EE
FD
FA
FF
F9
0A
04
0B
07
0B
0B
0E
0D
0B
04
FB
06
07
0A
06
08
08
05
0F
11
0C
07
E8
F7
FC
FA
FD
F8
01
F6
FC
F7
FE
07
0A
0F
07
0C
08
13
14
16
06
0F
07
03
0A
08
12
0A
E9
FC
FE
02
01
FF
00
05
08
F1
F5
FC
FE
04
08
0D
12
15
0F
12
0D
0B
0B
0A
05
07
06
0A
F7
FD
02
FB
FC
02
0B
1D
1D
03
F8
F4
00
02
06
04
06
0D
09
08
11
0A
0E
07
0B
07
17
10
FD
FC
02
FE
01
03
FE
13
FF
F7
FB
FC
FF
07
07
07
14
12
15
10
14
03
11
03
04
FA
0E
0A
05
00
F7
FC
FE
FC
07
08
F4
E9
02
00
F1
F9
09
FC
04
0D
04
09
0F
10
05
03
05
01
0C
09
08
FC
06
02
FE
FE
03
FB
09
EF
EC
EE
ED
E9
F3
FD
01
FC
F4
ED
F1
FE
F7
EE
EF
EA
F5
FD
F3
FE
FE
04
01
03
03
FE
FC
FF
00
F3
F3
F8
EA
FD
F9
E1
EC
FE
F7
EA
F8
F5
F0
ED
F6
FE
01
02
FF
FE
02
01
01
FF
FC
FF
03
FD
00
03
03
FF
00
FE
01
FE
03
03
02
FD
00
FD
01
FD
00
FE
FD
FD
FD
03
00
02
03
FF
00
FE
F9
FE
F2
F3
EF
F5
01
F8
EF
ED
F6
F8
FC
F6
F3
F4
FF
FE
00
04
02
01
FE
FE
FB
FD
00
F9
F4
FA
F6
F5
E3
E9
ED
F3
F1
E3
E5
F0
EF
F4
EE
EF
01
FF
03
01
FE
FF
0F
FE
FC
04
07
F0
DD
F5
F0
E6
E4
DF
D1
D3
E0
E7
E5
FB
F7
E9
EE
F0
FF
F8
FE
FD
04
05
11
F5
04
08
0C
03
FB
FA
FF
FE
01
F6
E6
DE
EA
E4
EC
FC
EC
EC
EE
F9
FE
EF
EE
FB
01
FD
0A
01
01
12
11
00
0F
02
01
FE
FE
F2
F3
F9
F0
ED
F2
EE
E5
F2
FC
0B
00
F8
F0
00
FD
F3
F6
02
F7
FD
09
05
10
08
F7
FF
07
FB
FD
F8
05
05
FA
F4
F2
0C
10
0B
0A
00
04
F9
05
F7
02
0E
FC
F1
FA
FE
FF
06
05
05
FF
02
F9
F7
FF
01
FA
03
FF
06
01
07
06
01
0A
FC
F7
0E
0D
0F
08
03
05
05
07
07
04
06
05
03
04
FC
F6
F4
F9
F5
F5
F7
FB
01
03
08
FF
FE
07
0A
04
0D
02
06
FB
00
FB
02
03
0C
04
FF
0C
0D
FD
FA
F6
EB
F1
F9
FB
FC
01
F4
04
07
02
0A
08
03
04
03
FC
FF
04
08
08
06
00
FC
0B
14
13
FF
EB
EA
EA
FD
FC
EF
F5
FA
01
0F
05
03
10
00
FC
F8
FA
01
0C
0B
13
0F
03
00
10
19
14
06
F7
ED
F5
02
03
E5
E2
E7
F6
0A
09
0D
0F
09
03
EE
F9
04
0F
0A
13
03
01
05
0C
20
18
0E
03
EE
F9
05
FA
EC
EA
EF
F6
0D
0C
05
16
16
08
F7
FA
07
0C
0D
0F
00
FD
05
16
1F
19
11
04
FC
FF
0D
05
FE
FA
F8
03
FB
FA
07
0C
12
08
02
F6
FD
01
0C
09
00
01
0F
24
21
1E
15
0A
05
09
03
0F
10
FE
FE
EA
FE
FE
06
0E
12
12
F6
F4
F8
F7
FB
FB
FA
01
12
21
19
18
12
FE
F9
FB
01
0B
05
FD
FB
FB
01
00
FD
09
0A
0A
FD
F8
F8
F3
EC
E7
EF
FD
16
1D
1D
13
04
ED
E3
F4
F4
FF
04
FB
F2
F0
F7
FC
04
02
FF
01
F6
F8
EF
F1
E6
DF
E7
FE
12
16
0E
FF
ED
E5
D8
EA
EF
F5
F9
02
FF
05
FC
04
03
03
09
FC
E8
E7
E8
DC
D3
D2
F3
07
10
0F
FC
EE
E7
DF
D3
DD
EA
EC
E7
FC
FF
0D
0F
FF
01
FE
0C
F7
E9
D9
E1
D1
D1
DD
03
0E
0C
04
F7
F0
E2
E4
DF
E4
DE
DD
DD
ED
00
F9
14
FF
04
F9
F6
F5
DC
D1
D4
D7
DD
F2
0D
20
06
01
FB
00
F7
EC
ED
ED
ED
E1
DC
F2
F6
FD
00
FF
01
F4
ED
F5
E0
DA
E1
F3
FD
05
09
0B
05
00
F8
FF
FD
FB
FE
F2
F8
E8
E5
F9
FE
FA
FC
00
FE
FD
E8
EB
E1
E4
EB
F1
FF
02
FB
02
08
06
FE
02
FC
02
03
FF
00
FA
FA
08
02
09
FE
FF
02
EF
E4
E3
E2
EA
F1
EB
F2
FC
FA
09
00
01
00
04
0E
04
0A
04
0D
0C
0A
03
0F
14
FE
03
01
F8
F0
EC
EF
F5
FA
EF
E6
F1
FD
F9
F7
F7
F4
F3
08
10
14
0E
0E
0E
0B
02
06
09
03
04
FF
FB
00
02
F9
F5
F9
F9
FC
F0
F3
EC
EE
FC
F2
EF
F9
06
F0
F9
F6
00
0A
05
02
03
03
02
FC
00
FB
04
FB
FF
02
06
01
FF
F3
F8
F6
F6
F9
F5
FD
02
04
FB
F9
FC
FB
03
04
FF
FD
FC
03
04
01
0C
06
07
02
FC
01
07
FF
FA
0F
F9
FC
01
0A
0E
0C
04
09
0A
05
FE
FE
04
03
00
FF
03
FD
01
03
03
FC
FF
FF
FE
01
02
00
00
02
FD
04
00
04
FD
FF
FF
03
04
00
FC
FF
04
FE
02
01
03
02
02
01
FF
FD
FB
01
05
09
0C
0F
FB
FE
06
09
0F
0E
05
03
00
03
FF
04
03
FD
FF
04
04
FD
F7
FD
F4
FB
F9
FA
F4
FB
05
12
0F
03
FD
04
0A
0C
0F
09
05
03
02
FD
FE
02
10
08
02
04
02
00
0A
F5
F8
F2
F7
F8
00
05
0B
0B
04
04
06
FB
00
FC
04
FF
FA
01
04
03
14
0E
07
00
FB
FC
03
F8
F7
FD
00
03
00
08
03
F8
FC
08
FF
FF
03
FE
F3
EC
ED
F3
03
FF
11
14
02
0B
FB
FD
FC
01
FD
F8
FB
00
04
04
FF
F9
FE
04
08
05
0D
0A
06
E2
F2
F7
FF
05
00
17
08
FD
F8
FD
09
04
FF
FA
03
FE
00
F7
FC
08
03
02
07
05
FB
FC
F7
F5
04
04
FE
0E
FE
0D
07
FC
F7
FB
FC
00
FC
F3
F8
F0
FB
FD
03
0B
06
0E
11
04
F8
ED
ED
F0
00
05
FC
0B
F6
05
01
01
FD
01
01
F6
F3
EE
EB
EC
F7
06
03
08
08
0A
09
03
00
E1
E7
EE
F7
FA
FF
F8
FF
07
09
06
0A
0C
07
F3
F2
F0
E6
EF
F7
08
0A
0E
0B
06
07
02
04
E7
E8
F5
F8
FB
FE
07
00
0F
07
03
FD
F6
F9
EC
F2
EE
E2
EE
04
09
0B
0F
0F
10
03
FB
F8
E5
DD
F9
00
01
04
06
07
10
09
FF
F6
F3
F2
F5
FD
EF
EB
F7
06
11
0A
12
21
13
08
FC
ED
E1
E2
F2
FA
05
FD
FD
09
11
0B
04
02
00
F9
FD
06
F5
F3
FA
10
12
11
14
14
04
F9
EF
EC
F1
E5
EF
F2
01
0D
07
06
08
10
0C
05
F9
FD
06
01
F5
F5
06
0E
0D
07
0B
FD
F8
F4
FC
F8
F8
ED
F4
F6
FA
F8
0B
0F
01
05
FE
F7
EC
FE
06
FB
F3
00
01
10
0C
07
07
F8
F3
F9
FF
05
FF
FA
F7
00
FD
00
0A
18
00
00
F4
E8
E4
F3
FC
F8
FF
FC
08
06
02
05
FD
F9
FD
FC
01
FF
04
F4
E9
FA
FC
00
0E
15
F8
FC
FD
E7
E7
E7
F1
EE
F5
F2
FD
02
FD
FD
F6
FE
F9
F5
00
F6
F6
F6
E6
FF
F5
02
11
0B
FB
FC
F7
E7
E7
E6
E6
E6
E8
F2
00
FD
F8
F2
FB
00
00
F3
F2
F1
F5
F6
EB
FF
FC
10
18
09
0A
F5
F5
EC
E8
E9
DA
D9
E3
EE
F9
03
F8
F9
F7
01
FC
F8
F4
EB
EA
F4
F6
FA
06
0A
04
F9
0D
FD
FB
02
FB
EE
EE
ED
F1
F8
FE
01
04
FF
FF
0A
06
F6
F5
F5
F7
03
0C
F7
07
04
03
ED
04
FD
F9
0A
0D
05
01
FE
FB
FE
03
0B
00
02
FD
05
08
FF
F9
F4
F2
FE
05
FB
03
FE
09
FC
05
04
0E
10
12
13
04
0C
FE
FE
00
03
05
FD
FE
FF
03
FB
F2
E7
EB
FB
FF
FE
02
FE
04
FD
01
0A
15
09
0F
0C
04
05
02
FB
FB
00
07
04
FF
F9
F3
E2
EC
E1
E6
F6
FF
0C
FF
02
FE
0C
02
04
12
03
06
03
03
02
02
05
0D
01
09
F8
F2
EE
E5
E2
DC
EA
EC
FA
FE
16
01
00
00
0E
13
10
11
06
07
FF
09
05
FF
F9
FE
FC
FC
E8
E8
DA
DB
E3
F0
FD
04
FF
03
02
04
FD
00
09
09
1B
22
0E
0C
23
15
FF
F6
12
03
F9
EE
EC
EE
EB
F5
F2
EF
FF
0E
07
00
00
FD
FF
FE
03
FF
10
10
07
06
02
0C
13
06
FD
09
15
0E
15
0D
0C
0A
0F
11
09
EE
FF
04
FE
FF
02
FF
02
FD
F8
F1
F2
06
04
07
0A
0C
10
12
1A
FF
06
05
06
FB
06
05
04
00
FF
FD
01
FC
03
04
01
FE
02
02
01
FC
FE
FF
03
FB
00
FF
00
05
FF
04
FE
FF
01
01
FF
FD
FF
04
04
01
03
FC
03
03
FC
FC
F2
F4
F3
FD
FC
F9
FC
F9
02
FF
FE
00
F5
FD
F8
F9
FF
02
00
04
FE
00
03
FC
FD
FF
FD
02
FB
F3
ED
EF
EF
EF
E8
DF
EF
F5
FE
09
10
0C
02
F6
F8
FA
FB
02
00
FD
02
FD
FB
F8
FA
06
00
FE
FF
EF
F1
EA
EA
E8
EF
F2
EE
F0
F7
F3
F1
F0
F3
F1
FE
FC
FC
03
04
04
06
0C
06
03
04
0A
00
FD
00
FE
F9
02
01
FE
F9
03
06
FF
FD
FE
F7
F4
FE
0A
14
07
FC
04
FC
0E
08
F8
02
02
F8
FA
00
0F
0D
09
FA
FA
FD
0A
04
02
00
FC
FD
F5
FC
10
05
F8
FE
0A
04
FE
FE
06
00
FA
FD
05
01
FE
FF
06
03
00
01
FE
01
FA
FD
03
FB
FD
FC
FE
10
01
FB
04
F6
F3
07
1B
09
FB
06
02
02
FE
FE
04
02
02
FD
00
F6
F3
FE
FB
FE
F5
03
12
16
08
FF
EE
01
FD
0C
11
00
02
0B
05
FA
F9
FB
FB
00
01
FF
01
FD
FE
03
03
0D
00
FE
19
0C
0B
FD
FD
0B
FE
00
0A
07
08
0B
07
01
F7
FA
FB
F4
FB
01
FD
00
04
07
05
14
06
FF
09
01
F7
FB
F9
FE
0C
FD
00
05
06
0B
00
FA
F3
F4
EA
E7
F0
F4
01
05
02
08
07
0E
12
0E
17
0F
EF
FD
F3
ED
F6
05
FF
08
FC
08
01
FC
FD
FC
F4
FB
01
02
0A
06
0C
0F
03
0A
0B
0D
19
0D
ED
01
FD
F4
F0
FC
FF
0B
04
06
05
19
17
0F
0E
0E
FE
04
02
0A
0D
0D
0B
0C
14
07
00
08
F2
F9
FA
F2
EA
F7
03
02
0E
13
14
1A
1F
1E
25
14
0A
00
02
0B
0D
0A
0A
0A
12
01
FC
07
F8
FF
FB
F2
E6
F1
FD
06
10
12
15
17
1A
25
25
1E
11
06
0C
06
FD
00
08
07
02
FC
FA
FE
FE
FA
09
FF
ED
F3
F1
FC
FB
02
06
0D
1B
1A
23
18
17
09
07
FE
02
00
05
05
FF
02
F0
0D
0A
FD
04
0D
F7
EB
E0
DE
E9
E1
ED
EF
FC
15
15
0C
00
FE
FD
09
F8
FB
FE
04
FA
0A
FC
FD
0C
00
05
09
FB
F0
E5
DB
E5
CB
C8
CB
D1
E3
F2
ED
FA
01
03
04
00
F9
07
01
FD
F3
EE
F2
03
F6
0E
0A
11
FF
F8
F3
E6
D0
C1
CC
D3
CD
DC
E0
F3
03
07
FF
0C
08
0B
FF
07
FF
F6
FA
FF
01
EE
FD
1C
0C
09
0A
F7
EE
ED
F9
EE
E3
EA
E8
F5
04
09
0B
04
07
08
FC
0F
03
F7
0B
FB
FF
03
00
20
0F
0C
17
07
03
0B
08
02
F9
F8
F7
F5
FC
04
06
FF
05
00
07
0D
02
FB
01
FA
00
06
04
16
10
09
0C
0F
0C
03
04
08
0A
05
F9
FE
01
FF
FA
F6
F7
FB
FB
0A
FB
FC
01
FC
FC
FD
06
0C
0D
FE
FF
01
06
FE
06
08
05
0C
07
05
F8
FA
FB
F8
FC
FF
0A
08
06
F8
01
FF
FE
FF
11
1D
10
0A
05
0E
0B
0A
0F
0C
03
0B
04
FC
FE
FA
FA
F7
FE
06
FF
07
07
F3
0A
FE
FD
00
02
17
18
0C
05
0D
05
09
0B
0A
FF
07
02
FC
05
02
FA
F8
FF
09
05
13
FF
01
F6
03
04
00
08
F8
00
12
0B
07
08
05
0F
07
03
0B
FC
F8
00
01
FE
02
0E
0D
07
12
0A
06
FF
04
03
FE
04
01
13
05
06
05
00
04
FE
FC
04
FC
F7
F4
02
FE
FF
F3
07
05
F7
FF
00
FC
03
00
FF
02
03
04
03
FC
04
02
02
00
F2
04
FD
EE
01
0B
FD
F0
F8
04
FD
F2
F0
FC
00
FE
FE
FF
FC
FF
FE
02
01
FC
01
FD
FF
FC
00
04
FD
FE
FD
04
FC
04
FC
03
03
01
01
01
FB
FF
03
02
00
FE
FE
FD
01
FC
F6
F8
F0
F6
F6
04
02
00
07
E2
DB
DF
ED
F3
F7
F9
FD
01
02
01
03
FF
00
03
FA
06
07
F5
F1
ED
E4
EF
E9
E8
E2
E5
E8
E7
ED
F0
E7
FF
F6
00
01
F4
FB
00
03
FE
FC
04
F9
06
FC
FA
F3
F5
F8
FC
FB
F5
ED
F5
F9
F7
FA
00
FD
04
0B
10
01
08
17
07
FF
00
01
FC
F2
0A
ED
E9
ED
FE
F1
FD
F6
FA
F7
FA
FC
FE
FD
0A
12
0A
0B
0F
12
1E
10
11
13
FC
FE
02
F6
FC
F1
F5
F6
F7
04
FE
01
05
01
03
01
01
01
00
06
FD
FC
00
00
01
F9
08
06
F8
FE
FD
11
0E
04
10
02
FD
00
F3
FA
02
03
06
02
F7
F6
F8
F5
F8
FC
FD
02
F7
F7
06
05
F8
05
F5
1B
0E
FC
0A
0C
06
F7
FE
04
0D
08
07
FD
FD
FB
01
FC
04
07
06
02
FB
FE
0C
00
03
07
01
23
04
03
06
0F
FC
05
05
01
0D
09
F6
04
09
0A
09
04
FF
08
0E
F9
03
18
15
00
05
01
08
0E
03
0D
0C
0D
06
00
0A
0D
16
09
F6
F2
00
04
12
07
FC
05
09
02
0B
14
0D
00
05
04
11
09
FE
06
14
0B
0B
0D
0F
14
16
02
E5
E5
F2
07
08
0A
FE
01
0A
0B
FC
FD
15
02
05
07
15
18
F2
F1
0D
14
10
0B
0D
12
12
F4
E2
DE
E8
F8
0F
15
0E
08
0B
04
00
F8
F0
F8
FC
00
15
16
F4
08
03
19
0B
11
13
14
0B
00
EB
DC
DE
EC
FC
0E
0E
11
08
0B
0A
F9
E2
EE
F4
05
0F
10
01
1A
0E
0D
0C
0E
09
12
FF
FE
F3
E2
D8
E1
F8
05
08
10
0A
14
02
01
EE
EF
F3
03
F8
0E
01
18
11
10
19
08
0C
06
FD
FC
F3
EB
D4
DD
F5
07
11
16
0D
12
0A
08
F5
12
FD
0A
F2
F2
00
13
16
0D
0F
01
FD
04
01
FF
F7
D4
C5
E4
09
14
12
0F
09
06
FB
00
F4
0F
06
04
F3
F2
FE
0E
0F
0D
0D
01
FD
02
07
FD
EB
CF
CC
F1
19
1A
11
11
09
04
F8
F7
F8
00
0C
04
F4
F4
FC
0F
0A
04
F6
FD
03
0C
01
EE
D1
BF
E0
07
2A
21
0E
0A
03
FC
EE
F9
0B
0B
06
03
F2
FB
F6
05
00
FF
F4
FF
01
03
FA
E3
C4
C9
F4
1F
23
18
05
03
02
F9
E6
F1
FF
FA
FD
FD
01
07
05
06
FB
FE
00
FC
FC
FA
F3
E2
CC
E0
05
1D
17
0F
00
FD
FC
F3
E5
F5
08
FC
07
04
01
14
06
06
03
FB
F2
FA
F2
EB
F8
F5
EA
F5
0C
18
14
05
FE
F4
F5
F1
F4
07
0B
0E
05
00
FB
0B
0C
02
06
FE
FB
FA
F5
FA
FA
01
F9
FE
10
19
0D
04
FC
FA
F9
FC
FD
1B
0E
08
03
02
F0
01
05
F6
03
FC
FB
F9
F9
FA
FB
05
03
10
14
18
16
0F
03
F9
F7
03
04
15
07
06
04
FD
04
F3
04
01
FD
04
02
FC
F8
FA
00
06
04
15
13
16
1C
0B
07
04
01
FA
F7
0E
06
02
02
04
03
04
FE
FD
05
02
03
09
0A
FE
F8
07
FD
05
11
12
25
1A
0D
0B
0A
00
F1
04
04
FE
FE
04
FD
FB
01
FF
F3
F9
F7
00
02
F4
F4
F9
EF
F6
FE
02
0E
14
12
18
22
1A
03
F7
06
00
00
02
FE
FD
FF
FE
FB
FD
0C
13
12
09
02
FD
01
08
1A
20
16
16
2B
21
15
21
09
08
01
01
00
FC
FF
FD
FF
05
0A
09
FB
01
11
1D
11
14
2D
1A
01
0A
26
1F
11
10
16
1D
0B
FF
01
02
FE
FE
00
00
FF
01
FD
01
01
FF
FE
FE
02
0A
10
11
08
03
FC
FC
FE
FE
FD
03
FF
FF
FD
FF
03
04
04
04
03
FF
09
FE
FF
08
08
08
0B
18
06
F9
13
18
10
05
0F
08
02
01
FD
04
FC
04
02
FC
03
07
0D
0C
FA
FF
03
0D
0D
0D
17
1C
17
11
15
17
02
04
FA
03
11
0B
0C
08
0A
FE
00
FC
FE
0F
0F
02
FC
F8
FF
FD
FA
F8
00
07
10
0E
12
17
05
FD
F0
E2
F4
02
FE
F5
F3
FC
FD
FC
FE
10
FA
02
F5
FF
F5
F3
F9
01
08
09
06
0D
17
16
13
05
FE
F4
E9
EC
E6
D9
F7
0D
0E
03
04
12
F7
F7
F0
F6
F2
F2
F1
F7
FE
F3
FD
FD
08
10
0F
13
0B
03
FF
F1
E2
E5
F0
FC
01
01
FD
F7
05
F3
E7
EA
F2
E8
F3
F5
F0
E3
E8
FC
06
14
23
1D
11
06
03
FC
F3
E0
EE
F0
09
03
EE
FE
F2
F8
EA
F2
F3
F8
F8
EE
E3
ED
F8
05
12
15
11
1C
15
0B
0E
03
F9
E9
EC
EE
0A
09
F4
09
FA
F4
EE
F2
F7
FA
F1
FA
F9
F9
04
06
08
10
0B
0D
18
0A
0D
07
FE
F1
E7
00
FE
01
E7
FC
02
F9
E6
EE
F8
FC
FC
FF
FE
02
03
FF
FF
F9
FB
FD
0F
0A
07
04
08
02
F5
F7
EF
01
F5
FE
FE
F3
F7
F6
FB
F9
FC
00
10
11
01
05
F2
EF
F1
FC
0A
08
04
11
1E
FE
E5
EB
FD
FC
05
0C
FB
F8
FA
FC
05
04
07
08
0C
FC
EF
F7
EC
ED
EA
FA
02
0A
10
17
1E
11
FB
FF
03
FE
F6
09
F8
05
05
08
04
FC
06
07
FB
E7
E5
F8
F5
F9
FC
FD
07
08
17
16
1D
10
EC
F5
06
06
FE
F0
FD
0D
01
FD
FB
00
03
01
FA
F1
FC
04
07
00
FD
02
07
FF
0E
18
0E
06
FB
0B
0C
FF
F8
F3
01
02
FC
00
F7
FB
FF
00
07
04
0B
07
07
FE
FF
02
01
00
14
0D
02
03
09
21
09
FF
FD
E9
F8
FB
0C
FC
FE
FC
FE
FF
07
08
0C
07
01
00
F8
FB
00
01
04
FF
F7
FD
F6
FA
0B
00
01
F0
EB
F9
0B
FE
00
FC
05
0D
13
0E
05
F4
F9
FF
FA
F4
EE
EF
F1
FC
F3
FA
FA
FF
0E
FE
FE
E6
F3
FA
01
03
FF
04
0E
12
0E
0B
F9
F7
F9
FE
F6
EE
EB
E6
EF
FD
FB
FC
0D
08
0F
0B
F8
E8
EB
F2
FA
02
01
0B
13
16
02
FB
F5
FA
FB
F8
FC
F6
F1
EF
F6
09
10
08
11
12
18
04
0E
F4
EA
F9
F6
F3
FB
08
0E
18
02
FA
FA
F7
02
FF
FC
F6
F7
F6
FE
1C
18
01
02
15
12
01
0E
FF
02
01
FF
F8
01
00
0A
08
06
FC
00
FB
06
FE
FC
F9
FD
FD
06
0A
08
0E
0E
0A
00
01
09
0A
13
09
05
13
04
02
0B
0C
00
FF
00
FF
FF
FC
FC
01
FF
F3
F7
FF
01
04
FE
0C
FD
00
05
04
14
0C
16
18
11
0A
10
0F
07
0B
03
00
FB
F8
F7
F9
F8
F3
F9
F6
F6
01
FD
FF
FE
FF
FC
FA
F7
EE
03
FE
03
0E
0F
09
07
0A
0A
FC
FE
00
FD
F5
F8
ED
F7
07
03
04
F8
F9
FF
01
00
F6
F0
EF
EC
F5
F9
01
01
03
FC
06
06
FE
FD
FE
F7
FA
00
FF
00
00
00
F9
04
02
01
03
FC
0B
EB
E8
F2
02
00
01
FB
FD
FF
03
0C
0A
04
08
FF
04
10
11
09
F3
EE
ED
00
FF
00
03
01
03
08
FF
09
08
0B
0B
0C
10
0D
10
12
21
0A
03
FE
0B
10
17
07
01
FE
FC
FA
01
FF
04
FD
FF
FE
F6
F0
FB
FC
FC
0A
15
0F
0D
04
0F
03
05
07
0E
09
0E
08
FB
F3
FD
FC
03
FC
FE
00
FC
04
FC
FE
FC
03
02
04
00
02
04
00
FE
FE
FD
FE
01
FF
FF
FF
FF
FC
FD
FC
03
03
04
FD
FC
FB
02
FF
02
FF
FD
F9
FA
F4
F2
EA
07
02
F9
EF
F0
EE
F9
FC
FB
FE
FD
03
FF
FC
FE
FD
01
F8
F8
FE
F8
F2
EE
F3
F1
F0
EC
FC
F4
FD
F9
F4
F2
FC
FF
FC
FE
01
FE
00
01
FE
FF
01
06
F7
EE
F4
F2
DE
D1
DE
D1
C6
DA
ED
EC
F5
F3
F5
F4
EE
F5
F9
EF
F4
F8
FE
03
FF
FE
04
02
FF
FE
01
F6
E3
E9
E0
EC
E2
F3
FA
F5
00
FA
EF
EC
F8
F2
F9
F6
FB
FE
FE
01
01
FC
FF
04
FB
02
11
08
FF
FD
F8
F6
F3
FD
00
FC
0B
06
F6
FA
FB
F3
F1
EC
F7
FD
09
0D
06
00
03
FC
14
07
FA
09
04
04
02
00
04
05
F8
F9
F7
FF
01
00
01
05
03
EE
E6
EF
F9
02
08
01
0F
08
18
08
FB
09
0C
00
05
FB
F7
FB
F9
F2
F4
FA
F9
04
04
02
07
F7
EF
E5
E7
F6
05
F3
13
05
07
10
06
0B
17
03
01
0C
03
FF
FC
04
03
F7
F7
F7
FD
FB
F7
FE
FA
F1
ED
FC
08
06
0F
FC
0B
11
17
10
12
0E
0A
12
0B
12
1B
1A
0A
F8
F7
F7
FD
FF
FA
07
01
05
09
07
05
FF
06
08
09
10
19
15
11
16
14
21
1C
20
2E
23
08
F9
F8
FC
FF
00
0C
09
01
01
08
10
03
04
0E
11
0E
1A
20
11
1A
16
1A
25
21
1B
1F
10
F6
F0
F9
08
01
02
05
06
FA
E6
07
15
0D
06
09
0B
02
10
12
0E
13
15
11
0A
FE
F7
ED
FA
F7
F4
01
05
F3
FB
FE
00
FC
EF
13
22
0A
0F
04
11
01
08
FF
00
FB
00
FC
F9
E7
D4
D5
F9
F7
FA
02
03
F3
05
01
FB
F4
01
12
1F
0B
F8
09
15
05
FA
EC
EB
E4
F8
F6
ED
D9
CD
E5
FC
F9
FA
01
FB
03
07
07
03
07
FC
0D
15
08
01
F9
0D
01
ED
EE
F4
EC
F0
F3
E7
D7
E1
F5
0B
FF
03
00
03
0A
0C
05
06
FA
04
FC
12
04
07
01
0F
F6
ED
EB
F2
FB
EF
EC
E2
D8
E5
FB
0B
08
08
02
0A
0E
0B
0D
02
F7
FA
FB
16
01
FF
FD
03
FB
EF
E8
F1
F3
EC
E7
E3
E5
ED
04
18
0F
03
02
0C
09
05
07
F8
F3
FD
05
0D
08
0B
01
0B
F5
F2
EC
E7
E7
E8
F4
F3
E9
F1
06
14
0E
00
0C
0C
05
05
01
F9
F5
F8
06
0C
17
05
10
FE
ED
FF
E6
E2
E0
F3
F9
F1
EE
F4
07
13
14
0A
09
03
06
01
F3
EC
04
10
0E
09
0B
02
08
00
F2
E5
DD
E4
EE
F6
F6
F4
F9
01
09
0E
0C
03
08
07
02
04
FE
FA
08
10
05
04
06
04
01
00
F7
EE
E9
FA
F4
FE
F9
05
FB
03
04
0C
0E
10
07
0D
0C
FF
FF
F7
08
13
0E
F7
01
FD
02
FC
F0
00
02
08
02
0A
0D
06
FC
FD
FE
02
0E
06
07
0D
03
03
FC
F6
0F
1D
13
FC
01
03
FF
F4
F3
FE
FD
0D
09
02
06
FC
F8
00
FE
03
0B
05
08
FF
02
FE
F3
FD
10
0B
04
0E
01
FF
FC
03
FD
11
0B
02
FA
04
FA
F4
FB
FC
FC
00
08
FB
03
FE
04
F6
FA
EE
00
0D
07
0C
03
04
FB
F7
FB
F4
F6
04
08
0B
F9
E9
F6
0D
F7
04
07
05
08
03
04
F8
FE
F2
F6
03
F4
01
FD
02
FF
FC
F9
EF
EF
FA
03
0D
02
01
01
FF
09
11
19
0D
0E
14
22
06
06
0A
06
F5
07
FE
FF
03
00
FF
FF
0F
09
0B
0F
18
0D
14
00
01
28
12
03
05
19
0E
06
FF
0F
14
14
FD
04
00
04
01
FF
04
02
04
FD
01
FE
FC
00
FC
FF
07
04
04
02
03
00
02
FC
04
04
04
03
02
00
FD
02
FD
00
00
04
03
03
09
0C
11
05
02
0D
0F
17
28
16
0C
0D
08
FC
02
FC
09
0C
FF
FE
04
04
00
02
0E
03
01
07
0A
06
02
F1
F8
F2
F5
FD
00
14
1C
0C
0E
0A
0C
05
0C
0E
02
02
04
00
FF
04
0D
FD
00
FB
F2
0B
0C
09
09
FE
02
10
0F
12
00
FA
F6
01
09
00
F5
F4
02
FD
01
FC
FD
FB
EF
11
04
F2
FD
02
FA
FC
03
07
03
FF
05
10
FC
F5
FF
FA
FE
0E
11
0A
03
08
08
02
FD
03
F8
FA
EC
0C
06
FF
FE
0A
0F
0E
05
0C
08
00
00
FE
09
04
0B
06
14
09
06
04
04
05
04
FF
04
ED
F0
02
05
0A
0D
09
10
15
14
22
1E
20
17
09
09
FF
01
06
FB
F4
05
06
11
0F
03
FB
F0
E7
E3
F4
00
06
0E
13
15
13
1D
27
28
14
07
FC
F8
F9
FB
F0
E3
D8
F7
03
13
0C
FF
FA
F0
EA
DE
EE
FF
00
0A
0D
13
1F
22
1F
14
09
F3
EA
E9
EA
E3
E8
E2
E2
F4
00
10
08
FD
F7
F9
F7
FF
F2
04
0E
14
15
19
1C
0D
07
FA
E8
DF
E3
EE
D8
DB
DA
DD
DC
FC
FC
0B
0A
FA
F8
FD
04
F6
03
0C
0F
10
0D
0A
03
FC
FD
EC
E8
F3
F7
F6
E2
E3
E6
E8
E7
F2
F5
0B
0E
FD
EB
F3
F7
FC
01
09
05
05
F8
F9
F4
ED
F9
F0
F4
07
12
0D
FE
F4
F2
F3
FE
F8
EE
0B
0B
FB
EF
F2
F7
04
04
12
01
FE
FC
F8
F5
F0
FB
01
00
03
0A
0E
01
03
F6
FE
16
FB
E5
FF
01
04
FC
FD
F0
F9
F9
01
02
FC
FE
FF
F6
FD
FE
FD
FB
01
00
FF
04
FD
FB
05
0B
03
E8
F6
F5
0C
04
F7
F2
FA
E9
F8
F9
02
FA
03
F9
FE
F7
F9
F8
FF
FE
00
F1
FE
08
0F
1B
0E
FC
E3
F7
05
0B
EE
EE
F9
EF
ED
F4
F9
FF
FF
F7
FE
FC
F3
FA
F9
F7
F9
F2
FF
0F
05
0E
12
F3
E8
F7
FD
0C
FD
F4
EE
EA
E2
E6
ED
F3
FB
01
FC
F8
FE
F3
F5
F3
F6
F9
FA
04
07
08
11
EB
EB
F5
03
08
F7
01
E7
E7
E9
E7
F1
EE
04
09
09
F6
FD
FC
F6
F2
F4
FE
05
06
02
02
FE
E8
E8
F1
00
F3
FB
0A
FF
E2
EC
ED
EC
ED
F5
F3
E6
DF
F2
03
F6
FA
FA
0C
10
14
0A
06
F7
F1
E2
EA
03
FA
0F
18
06
EA
ED
EB
F1
E8
E0
E9
E3
E0
F9
04
07
04
03
0F
11
0E
0C
0D
15
0A
E3
EE
FD
F3
0A
14
0A
FC
F1
F2
F6
F1
E8
EE
EF
F8
00
08
0E
0B
03
0E
0D
09
10
16
1A
14
E3
06
01
F7
F4
03
16
0B
01
FC
F9
F9
02
08
0B
0A
0C
0D
16
FD
05
04
16
0F
0A
0A
18
0F
FE
05
01
F3
ED
01
0C
0B
F9
FC
00
FF
02
09
0D
04
08
0E
12
06
03
09
11
06
0B
0F
0C
0A
04
02
FC
02
0B
15
10
10
06
F9
01
03
19
16
0A
04
0F
0D
06
05
FB
FE
0D
06
0A
0B
18
03
08
FC
01
FF
F8
11
10
0E
13
1C
14
14
18
0D
07
03
FC
03
FE
08
05
08
0A
08
07
12
0D
F8
FD
02
FD
FF
02
0B
02
0E
17
15
22
20
1A
12
0F
11
FE
05
07
0F
06
16
10
12
0D
12
21
02
F9
04
FF
04
00
FE
02
0B
0A
FD
0B
1F
24
21
0C
1C
29
19
1F
1A
18
1F
25
16
1A
13
07
02
01
03
FC
FF
FE
04
02
02
01
F9
F4
ED
F0
EF
F2
F4
08
07
08
00
09
05
FF
FF
0A
FB
FD
FF
03
FE
02
FC
FB
FC
03
00
01
FC
01
FE
01
FF
FD
00
FF
FF
04
00
FC
FD
02
FC
FE
FD
02
FD
00
FC
01
FC
FD
01
04
00
FB
F8
FA
FA
FA
F9
F8
02
04
FD
03
FF
FA
F9
01
FA
FD
FE
FE
00
FE
FD
FF
FE
FC
FD
FB
02
FF
FA
02
06
07
03
0B
0C
05
F3
F1
FF
FF
F4
FF
FE
FC
FD
00
01
FE
FC
01
00
08
FB
FB
F9
F7
FF
FB
08
03
FF
FF
03
03
08
09
FE
07
00
02
FE
05
F3
02
06
06
04
FD
FC
F7
F3
F4
F9
15
16
03
07
0A
09
05
05
03
02
00
08
0A
07
FE
03
02
08
0F
11
02
F9
03
02
07
00
F8
F5
01
FE
FF
09
15
13
0E
0A
06
01
04
09
08
03
0B
07
11
0B
02
11
01
F2
FC
FC
F9
F5
F4
F3
00
FF
F7
FC
08
05
05
0B
0C
03
02
02
03
04
02
0C
0D
07
0C
08
09
FC
FF
F0
F2
FE
08
00
02
FE
FF
FD
03
09
08
05
0A
01
05
FA
01
02
06
07
08
08
0E
17
13
F9
FF
F3
F0
04
13
01
FA
FC
FB
F7
F8
F8
F5
F6
0B
02
06
01
FF
03
09
08
0B
14
0E
19
0D
F5
00
E8
FF
FF
07
0D
FF
FE
FB
FA
F4
F6
F9
F6
F7
FC
09
06
08
FB
01
05
04
12
0D
1C
0A
08
01
EB
00
FE
FA
0E
07
FA
FC
F4
F2
FD
FA
F6
F2
F5
FF
06
03
FC
04
09
05
09
0B
12
0E
01
FC
F8
F7
F6
03
07
06
F8
FF
F4
FA
FA
F3
EF
E8
E4
F0
FB
01
02
05
06
06
05
F8
F8
FD
F3
01
EF
FA
04
03
FB
FE
ED
F8
F4
F7
F3
EC
EA
E5
E3
E2
E8
F2
06
06
01
FC
FE
F0
F1
F5
F1
00
FC
01
0C
0F
02
EE
EB
F3
F4
F8
F1
EF
F7
FC
E5
DB
E6
F2
0B
08
09
FE
FC
F2
F9
02
FE
FF
F2
F5
0D
0C
FA
F4
EF
EE
F2
EF
F2
F3
F9
02
EA
DB
D6
F2
01
0C
08
04
F8
FE
FD
0A
07
02
FA
ED
0B
FD
FC
F7
F5
F4
FA
F3
F9
01
08
FF
E9
DD
E3
F6
05
02
09
F4
F6
04
FB
0F
0B
FE
FB
EF
06
03
FE
F5
F3
F3
FD
FF
F8
0F
09
F6
E1
DE
EA
F9
01
01
FF
FD
F6
F2
FB
08
0B
03
F7
F8
0A
04
FE
06
FD
FC
00
06
03
07
04
F3
E0
E6
FA
FE
FD
F8
F4
F9
F2
F9
16
0D
0E
02
F0
F7
04
03
04
05
0D
0D
0A
06
0E
0F
02
F3
EC
F8
FC
09
05
FC
FE
F8
FA
FE
12
17
17
FE
FE
06
05
02
FF
0A
0F
0C
06
0A
11
12
08
F8
F7
01
0B
05
06
FF
FA
F5
F1
F2
0E
19
13
00
FE
15
15
0B
16
14
08
10
0A
05
0D
0C
03
FF
09
19
11
0B
01
FE
FE
FF
02
FB
03
0C
03
03
07
15
13
09
09
09
08
03
0B
05
04
05
03
0D
12
17
14
05
07
06
07
05
17
17
12
0D
06
00
F8
0E
13
01
00
01
02
0A
0B
0A
07
04
0B
0F
15
17
11
15
0D
12
0A
10
11
20
04
FE
02
02
FC
02
0A
FF
FF
FC
FD
00
01
0A
14
14
12
0E
0E
0B
15
10
14
10
15
19
0D
14
07
FD
FC
05
01
F8
F9
F8
F8
F1
F3
F5
03
F5
04
11
05
07
09
03
0E
0B
03
0F
01
08
05
16
0E
03
01
FD
FF
02
FB
F3
EF
EE
F2
EF
EA
E9
EF
E0
DF
DE
E1
E2
EB
EE
06
0F
04
00
06
FE
08
03
FC
FF
FD
FF
FD
FE
00
FE
FC
F5
F8
F1
E6
E8
F2
EE
E6
EC
E6
EA
F8
0B
FC
02
04
01
00
00
00
01
02
01
03
04
02
FE
02
F7
00
FC
F9
FA
F9
F8
F5
FE
FA
F8
00
0C
05
06
FA
02
FC
01
00
03
FC
FC
FC
FB
04
01
01
02
03
FE
00
FF
FD
02
FE
01
FD
02
FC
01
01
02
FF
FD
03
02
02
02
FF
01
FE
FA
F6
F9
F9
F8
FB
01
FA
F7
F9
FF
FC
FE
FB
FE
F7
F2
F7
F1
F6
FE
FF
03
FD
FE
03
F9
FB
F5
FB
FF
FE
02
0B
04
05
06
F5
0B
FA
FB
0F
0C
FF
FB
06
05
F6
F6
03
FF
FD
FE
FB
FA
FA
07
00
FE
FA
F3
05
01
01
FE
F8
FF
FF
FB
F0
F6
F8
02
13
1F
16
0B
0A
06
02
FD
FF
F7
EF
F5
EC
F1
05
02
0E
0D
15
0A
03
05
FF
FD
02
F3
FF
05
0A
0E
1F
27
21
1D
0B
FE
03
F6
F2
E4
E8
F2
FD
0C
16
1F
1A
0C
FF
FC
F0
F9
FD
F5
F8
F7
01
08
09
21
2F
17
09
04
00
FD
ED
F2
FF
FC
0B
17
1C
07
06
08
F6
F6
FA
F7
FF
EF
F8
F9
F6
03
0D
0F
19
15
02
05
FF
03
E9
EA
06
09
10
1F
1C
0B
00
F3
EF
F4
FF
FF
02
FE
FF
FD
0E
15
0B
0C
13
1C
08
F4
F3
07
00
F4
16
15
12
1B
15
0C
F7
E8
E7
F8
F7
FE
FB
FC
F9
0A
08
00
06
10
1F
2B
19
FE
01
FC
F8
F3
01
07
09
16
16
0A
FB
E2
D5
E3
F8
00
FD
F1
F8
00
01
F9
07
17
20
1D
F6
FB
FC
F8
EE
FD
03
03
0D
1B
1E
15
01
E7
D7
E6
FE
FD
F3
EB
F5
F5
FA
FB
FD
11
09
12
F8
00
FA
FF
EE
FB
03
07
13
20
25
1B
0A
FE
E4
F4
02
02
EF
E7
F1
ED
F9
FA
FF
0B
11
1A
FB
02
04
FA
03
F0
FF
FC
14
1B
1E
14
13
01
F3
F2
05
FE
F1
F4
FB
F9
05
02
FC
0C
0B
11
F1
F7
00
FC
FD
EC
0A
FA
0A
0C
14
12
10
05
F7
F3
FD
FF
F9
02
03
12
13
12
FC
01
04
0B
00
09
FF
FC
F3
FB
10
05
0A
07
07
0A
13
06
FB
FE
F8
05
0A
07
0B
06
0B
10
FF
F8
F9
01
04
09
00
04
07
01
04
FF
F9
04
01
08
0C
0F
09
FE
01
04
0D
FF
FB
F6
F9
01
06
F5
07
15
0D
01
FD
FE
0C
F4
FD
FD
EC
F0
F4
FF
04
11
08
00
0A
13
0C
FC
00
FD
F8
F2
08
F5
1D
08
FF
04
FE
09
FF
F7
FE
F5
E8
EF
F0
F5
02
0E
0B
04
10
0E
FF
02
FC
05
F8
F7
02
0A
1F
09
08
F2
F6
FF
07
F6
FF
F4
EB
F2
F0
FD
04
14
14
0F
01
03
F2
00
F4
FE
F3
F7
FE
1B
0A
0A
04
F6
F3
FF
F3
EC
F5
F5
F3
F3
F4
FE
08
18
0E
0E
06
F5
F8
F6
F6
F2
F6
F6
02
08
05
17
FA
03
FF
00
F5
EB
ED
F0
F1
F6
F3
01
0D
19
11
0B
03
F6
FC
FF
F5
FB
FF
FA
F7
01
01
05
FB
02
FD
FE
F6
EA
E8
EF
EE
FA
FD
FF
08
0C
0D
0B
03
FF
07
FA
FE
FE
05
00
05
08
07
F8
FC
FD
FF
FA
FF
F9
F1
F3
F2
F9
F7
02
FE
08
FF
05
01
07
06
FA
02
F9
05
03
0B
0F
FE
0A
FB
FD
00
FF
04
FD
F4
F0
F5
FE
FA
F5
F3
F8
00
05
FD
09
FF
03
02
02
0E
10
0E
FF
10
0E
01
FF
01
03
FC
F2
EC
E6
EE
EF
00
FC
03
06
FF
06
01
05
F7
04
19
09
08
0A
01
00
02
FA
02
FD
02
F8
06
02
E9
EC
EC
EB
F3
00
0A
F3
FE
09
0F
04
07
08
F5
F9
0A
0C
11
01
02
07
FF
00
00
02
04
02
F4
F0
EB
EE
E3
E6
EF
FA
F2
E9
EB
E8
EE
F2
E5
E6
F1
E6
EF
F8
FF
FE
FE
00
FF
FF
04
04
05
FA
F7
F4
F5
F1
F5
F1
F3
E8
F9
FE
F6
EF
F9
FD
F3
F2
FF
02
FE
FE
FC
02
03
02
FF
FF
FE
FC
02
01
02
FD
04
0B
02
EE
F5
02
03
FF
FF
01
02
FE
02
FC
FF
FC
FC
03
FD
00
03
06
02
12
16
0F
05
0D
0B
08
08
FF
F2
F8
FB
15
0C
0D
0F
0E
0A
00
00
FE
03
01
FF
0A
F1
FA
03
09
0B
08
00
02
0C
0A
01
09
FF
F9
FB
FE
00
04
0F
14
0F
FB
F3
FC
01
00
FD
F2
F1
F7
03
07
0B
03
FE
05
07
02
08
0B
07
05
F8
03
02
F8
0E
0D
15
05
F1
00
01
FF
03
F8
F5
05
03
FA
FF
04
03
FE
FD
07
05
09
FC
01
09
01
FF
06
01
02
0A
08
05
0D
14
01
04
FC
EF
00
F7
FF
0D
10
0F
00
05
0F
0C
08
03
FF
08
FE
FF
FB
FD
F3
FF
03
07
07
0F
03
F4
FA
EE
02
F9
FD
06
09
04
FB
09
07
FE
02
06
FE
04
FD
FF
FF
00
FF
05
FF
08
FF
0C
06
ED
09
03
FD
F7
FA
03
06
05
02
05
02
FF
F4
03
00
FC
FB
00
F9
07
04
06
06
05
04
05
F8
ED
0E
05
04
03
06
07
0D
0E
08
06
03
05
FB
F8
FD
FE
01
FD
03
07
FB
01
09
06
0B
00
FF
0D
04
02
01
00
03
FB
00
05
03
04
01
00
FC
FA
FA
FB
02
09
0E
0F
00
05
05
00
01
F2
FE
FD
FB
F9
FE
FE
01
02
04
0D
07
04
02
FE
FE
F8
FE
FA
03
0A
0A
0E
07
03
FE
F3
EF
F8
05
F2
FD
FC
FA
04
05
0D
11
12
0C
03
10
02
03
00
07
FF
FC
05
05
0E
08
0E
08
F8
01
FA
01
07
02
08
FC
05
05
0F
0B
0C
02
0A
01
04
F8
06
0D
0B
00
03
02
15
12
19
14
F6
F0
F5
F5
03
FB
FC
FA
09
07
03
0C
0C
0B
09
01
FF
FC
11
13
03
0A
0B
04
0C
15
18
02
FB
E6
F3
FB
FC
F0
F2
F2
06
02
09
0C
0A
0A
0E
0D
07
01
0A
0C
0D
09
0D
03
06
07
03
F6
FD
E4
F2
F7
FE
F7
FE
EF
FA
02
0A
0F
0F
14
0C
03
02
0C
0F
06
13
0C
09
05
FD
0A
FD
EE
05
ED
EC
04
FB
FD
F6
EC
F5
0E
0D
14
0F
0A
08
0B
07
0A
0B
0D
0D
0B
03
04
FB
FA
FF
F5
04
E5
F0
FF
FC
07
EB
EF
FB
00
0E
11
0D
02
08
05
0D
0D
09
0C
07
05
04
04
00
03
01
FC
F5
F1
E5
F7
FC
0A
F4
F7
F6
FE
0B
0A
0B
01
0B
11
0F
0D
06
02
FE
03
04
03
02
FB
FA
F9
EE
FB
EE
F5
F3
F9
F6
F7
F9
FF
01
07
08
0A
06
07
01
0A
FD
FF
00
FC
FE
FF
FF
00
F2
F6
E7
F5
FB
03
06
FB
F1
F5
FE
FA
00
FC
FE
01
FB
FC
03
09
01
F7
F7
FC
00
FE
03
F9
F1
EF
E7
F2
F3
FB
FC
E9
EE
F7
00
FB
00
02
09
01
02
03
07
07
01
FC
02
F9
FD
FA
FA
00
F1
E0
E5
EE
FD
FD
FB
F2
F1
FF
F8
04
08
03
FE
05
0A
0C
0A
06
01
03
FF
F6
FB
F4
FF
F9
ED
F0
EF
E5
03
02
FF
EE
EE
03
FB
FE
03
03
FF
F6
FA
01
03
FE
00
00
F6
02
04
01
00
FB
F7
EC
EC
E6
FF
FF
00
03
F1
FC
00
08
FF
05
FE
01
07
05
02
FF
02
08
F0
FA
05
08
FC
F5
FE
EC
F3
F2
02
FE
FC
FF
05
0A
FB
FB
F7
F2
F9
0D
0B
F6
F7
05
01
F9
FB
00
F3
F8
F4
EE
F1
F0
F8
F8
02
04
00
FF
FF
11
06
0A
10
0A
0A
04
F8
03
FB
03
F1
F1
F9
04
E9
F6
FD
F8
05
02
04
02
00
FF
02
00
03
F6
FE
F3
F0
FB
F8
F7
FC
FE
FE
FB
0E
0A
FF
08
06
0E
08
FD
FA
FF
05
FD
01
03
01
FD
03
FF
03
FB
02
00
FC
03
00
07
02
F1
F4
FD
FE
FF
03
FD
01
02
04
02
FE
FE
01
03
FC
03
FC
FF
04
0D
10
14
0C
10
12
1B
19
01
06
02
0F
14
1A
17
17
0F
07
03
02
04
03
00
03
07
10
18
09
0A
10
0F
FB
03
0A
F8
F0
F3
FC
F8
FE
00
08
01
08
11
0C
F9
F6
FE
FD
00
FD
00
10
19
04
08
09
0C
0B
0B
0E
02
03
FE
FC
FB
02
04
0D
10
15
10
0B
09
FD
09
00
02
FE
FD
13
02
F0
ED
FE
01
08
0C
0B
09
FC
FF
FE
03
FB
04
04
0C
12
06
0A
05
04
07
09
04
01
FF
00
EC
EA
F5
FB
0C
15
13
12
06
00
02
F4
F3
FA
F3
FC
FD
FF
FA
F9
08
04
0C
0A
02
F8
FF
F1
F8
FD
FF
0B
0D
06
07
0D
0A
FC
02
02
FA
FB
FA
F6
F6
F4
00
FA
04
06
07
01
03
EF
FC
F0
F4
04
FF
01
09
05
12
11
03
FD
FC
03
FD
03
FF
FD
F9
FD
FA
FD
0E
0B
FF
04
0D
FD
05
F0
E7
FC
01
07
0E
0C
00
09
03
FA
FA
FE
09
05
01
FC
00
08
F4
F8
16
1C
F6
F4
03
FE
F5
EA
F7
F9
02
04
13
14
11
11
FB
F3
F5
F5
FD
01
01
F1
F9
F3
E6
F5
0D
0F
F1
F1
02
FB
EE
E0
F3
F9
04
06
17
1D
17
06
F6
F1
FA
04
04
00
04
FC
FC
F9
F3
02
14
0E
03
F2
02
F7
ED
DA
F0
FC
0E
0B
15
15
10
04
FB
FB
FE
0A
16
0E
09
FA
FD
FD
F8
07
14
FE
06
FD
FF
F4
EA
F1
F8
F9
15
14
0E
0B
0D
04
FD
FA
04
05
08
08
08
F9
01
03
01
19
08
EE
F1
F5
FD
FA
EE
FF
09
00
0D
13
07
0B
09
FA
FA
F3
FA
FA
F7
F8
03
01
F8
04
0E
14
FD
EC
E1
F5
02
FF
EE
F3
06
02
08
10
08
0E
08
FF
F4
F3
ED
F6
FB
02
06
00
06
0D
0C
0E
06
EF
E2
EF
05
03
EE
E5
FB
00
04
0D
10
10
0F
01
01
F1
E5
EB
F2
FF
03
FC
01
0C
09
10
FF
05
E8
E8
FE
03
00
EA
ED
FF
04
06
19
10
09
0F
05
FA
E9
EB
F3
F6
FF
02
07
FE
0D
05
04
00
E3
EE
FD
FC
FD
F7
ED
FD
FF
02
07
0C
0F
0E
06
FC
F4
EB
F8
FD
05
0A
0D
0B
0C
09
FE
EE
F0
F0
FC
F4
07
03
F9
F7
00
02
04
05
14
14
0F
01
F5
F2
F3
00
08
0D
10
0C
06
04
F3
EB
F3
EC
FC
04
0B
0D
FA
FC
02
FC
FF
02
0F
0C
10
FC
F0
EB
EE
FF
0A
15
0C
06
FF
FB
00
ED
ED
01
04
0D
03
08
03
FA
F4
EF
F7
04
05
FE
08
F8
F6
F4
02
08
0F
0A
04
07
00
F8
00
04
F1
03
03
F6
F3
00
FD
F2
E9
F0
F9
FF
FC
02
02
FE
FA
07
13
13
0A
0E
0F
06
01
FB
F4
05
02
06
FD
FE
F2
F7
FC
F0
E3
E2
E6
EA
EF
F8
FC
03
07
1B
20
1D
13
06
FD
FA
FC
FF
F5
01
0D
FE
02
02
F2
01
FF
FD
EF
E4
E7
EC
F1
ED
F4
FF
10
16
14
0C
08
FF
FE
FB
FC
06
09
02
05
FB
FF
00
FA
08
01
0A
03
FB
F9
06
09
FE
02
06
02
0E
10
02
01
FE
06
F4
02
08
FB
F2
FC
04
FE
FF
0C
08
03
0C
07
04
11
19
17
0D
00
02
01
FC
FD
04
03
09
0B
0A
10
21
1B
03
F7
00
FF
00
FE
02
04
0C
01
02
04
06
10
12
11
0A
09
00
0E
0F
07
03
11
05
F8
FF
02
02
FF
FD
03
FC
02
00
FF
FE
09
03
01
FB
F8
F9
00
F0
01
02
FC
E9
F4
06
F5
F2
EC
F1
02
00
FF
FC
FD
02
FC
FC
FF
00
02
03
03
FD
02
01
FE
02
FD
04
FC
04
FD
01
FE
02
FE
FF
02
FC
03
01
04
04
FB
03
03
FC
04
FE
02
FF
02
F6
EF
F2
FF
EE
F0
EE
F5
FA
FB
FC
FD
01
04
00
FE
FC
FC
FF
04
ED
F1
FE
FA
F9
02
F7
F3
E9
E8
ED
F3
FE
FE
0C
FF
F2
F3
F1
F9
F9
FC
04
04
01
02
FD
FF
F5
EB
F0
EF
ED
EC
EE
E3
E0
E2
E2
D4
D8
DD
D8
EE
F7
F7
03
05
F9
F5
0F
0A
FD
01
03
05
00
EF
EC
F2
EE
EE
ED
E1
DD
E6
E1
F5
F1
E3
F2
F1
E8
F2
02
06
04
06
14
08
FB
01
02
F7
F6
FA
FF
F8
EF
F4
EC
EB
02
01
FC
FF
F4
F7
F2
F3
F1
F8
01
0A
0B
02
15
03
FF
02
FF
FA
05
06
09
FE
01
FA
F7
F7
05
09
04
04
FB
F3
F8
02
0A
0B
0B
02
06
07
0A
09
FD
02
05
0C
18
FE
06
02
FD
F8
F5
F9
FF
03
FA
FD
F7
FE
FC
07
09
0B
12
0B
02
FD
07
07
F8
F4
1A
09
0B
06
01
05
09
01
FC
FB
03
01
00
FB
F5
F9
0A
0D
0A
0E
14
15
1B
13
12
0C
16
00
11
04
0A
0D
0E
07
07
FF
01
05
09
0A
0E
06
08
09
0D
11
05
0A
14
14
12
18
19
12
0C
01
08
00
FE
11
18
10
08
03
03
13
1A
1E
20
19
0E
10
0C
17
11
0D
14
04
F3
11
15
27
03
08
FA
14
09
1D
20
1B
18
0F
13
1A
20
1A
1D
0D
02
FA
F8
03
06
FF
03
F9
F6
F5
0C
21
07
FF
09
09
01
11
16
0B
11
1A
16
0C
0D
03
F9
F1
EC
E9
F1
F9
F5
F7
F1
EB
EF
EF
0E
1E
11
FE
04
12
F8
FD
07
03
FF
05
04
02
F5
DF
DD
E7
ED
F3
F7
EC
ED
FC
F3
E4
E2
F0
F9
17
0B
02
03
16
04
F2
F3
F0
E5
ED
ED
EA
D9
CD
DE
EC
F3
EF
F7
EE
F2
F9
F3
F8
F0
E2
F0
0C
11
08
03
0A
FD
E8
DD
EC
DA
E0
E2
E6
E2
E1
EC
00
FC
FC
FC
F9
EE
F7
FE
F9
FA
F1
FF
1B
0F
04
FC
FC
F2
E7
E0
EA
EA
E8
ED
F0
F3
F7
F7
09
0A
0B
01
F8
F8
FA
07
04
FD
F3
0F
1A
0E
FD
FF
EF
F8
F2
ED
EF
F1
F8
FD
FC
03
FB
00
0F
0C
0F
04
FB
F4
F8
03
FC
F4
EE
14
0B
08
0A
02
FD
F7
FD
F3
F6
FD
FA
04
FF
06
05
07
10
09
06
FF
F9
F5
F2
F4
F4
F2
F4
FC
06
0D
05
11
08
F5
05
F1
F4
F7
08
05
FF
F9
05
0F
0B
11
06
FC
F9
F4
EC
E7
E6
F6
F5
FB
0E
0D
FD
FC
04
FA
FC
FB
FE
FA
06
FF
02
00
03
09
04
0B
FE
03
F4
F5
F7
F2
F3
F7
00
F9
09
05
05
F6
0C
FA
07
FD
FD
FD
FD
04
00
FF
07
09
0B
0C
08
0E
FF
FD
FC
00
F5
02
0E
01
F1
02
FE
01
02
FB
12
04
FC
05
04
07
00
00
08
0A
13
09
0B
05
06
05
FD
FD
EE
FC
0C
08
F9
FE
02
02
F7
FC
15
10
06
FD
03
07
03
03
06
01
09
09
0D
0A
04
0C
07
FC
FE
0B
04
09
0C
03
FD
03
F7
F8
FD
FE
F1
F5
FF
01
00
08
FE
FA
00
FA
01
0E
13
1B
13
0B
03
05
1C
0C
06
FF
00
00
F2
07
03
F8
01
00
F9
F6
F1
FF
01
F7
05
10
0E
11
19
1C
0E
14
0D
FE
0F
FE
03
02
03
FC
03
01
E9
EE
EF
F7
08
05
F7
FB
03
0C
05
0F
04
FB
03
0F
08
09
12
08
FA
0B
FD
05
FE
FE
03
02
0A
0B
06
03
FE
06
12
08
06
27
13
FC
08
16
0D
08
01
08
0B
14
03
04
FC
00
03
FF
FF
00
02
03
05
02
FF
02
03
FC
F8
F9
FC
FC
00
03
00
00
03
FD
FD
FC
03
FE
04
04
FE
04
FC
FC
01
FE
E8
F7
F3
F3
EA
F3
EE
E2
00
07
0E
07
E4
FD
F6
F4
F5
F9
FE
00
00
FE
04
04
FE
F7
F5
EF
F3
EF
FE
0A
08
FC
0A
07
FC
FC
EB
D8
E2
EC
F0
F5
F8
02
08
0C
FD
FF
FE
FC
0F
04
F9
FF
02
06
05
0D
05
01
06
03
EA
DD
D3
DE
C6
D9
EC
EB
F5
00
09
08
00
FF
01
01
0F
06
14
16
17
05
0F
0A
0F
10
0A
0A
EE
E7
DE
DF
D9
E2
E1
EE
EA
ED
FC
FF
03
03
03
03
0D
0C
24
21
1D
0F
07
0D
07
09
0E
07
04
0B
FC
E4
E0
D5
D6
E6
E3
E8
EE
FA
FD
FE
02
01
01
1A
1D
12
21
10
0C
0E
12
0B
0C
0D
0E
09
02
EA
E5
D1
D8
E0
DC
E9
ED
FB
FD
08
01
0C
10
28
23
0C
13
0D
FF
10
0D
0C
11
0F
13
0B
08
FD
E9
D9
D5
DB
D6
DE
EE
F3
F2
06
01
0C
15
09
20
0E
08
FF
04
12
13
0F
11
1D
25
19
0B
04
F0
DC
D6
DB
E1
EA
E6
F8
FC
FA
03
08
13
02
16
10
03
03
06
0C
03
FE
04
1D
26
1E
0D
F5
E5
DA
D7
D5
E8
F7
F8
08
15
0F
FF
15
16
FB
0D
03
FA
F6
EC
EB
EA
EC
EF
0C
18
0D
01
F8
E9
DB
D2
D4
ED
FE
06
0D
12
0E
02
07
08
F4
01
F2
E1
DF
DE
DB
E1
F0
EE
02
0E
03
F9
F7
F5
E9
E0
F1
F3
02
09
09
F5
0B
04
02
FE
E9
F0
E7
D1
CC
D4
DB
E8
EF
FC
FE
0C
05
04
F6
FB
F2
F7
06
02
FD
0D
21
08
11
06
04
06
F1
E3
E0
CC
C9
DC
EB
F8
FF
01
03
0F
02
FE
01
03
FF
02
0F
07
05
18
1F
19
0F
F4
FF
02
F2
EA
DC
E1
DE
F1
FE
0B
0A
08
0B
10
05
F4
00
09
0A
0C
12
0B
11
14
14
27
11
F5
00
07
F9
E8
F4
04
08
10
0E
13
0E
0D
13
09
FF
F7
FA
00
08
0B
13
10
10
18
03
16
12
FF
07
06
E9
E5
FB
20
18
17
19
0D
06
06
0C
08
F9
F9
F8
FF
09
05
12
0F
0E
0F
05
19
13
FD
07
FF
F7
EF
F3
14
0B
06
07
FE
FA
01
06
06
F7
FC
FF
FF
07
02
05
10
11
10
15
1D
17
FB
08
00
FB
F8
F1
F5
EF
EE
F5
F7
FD
03
09
FE
FF
05
06
04
07
FF
02
12
0D
04
14
20
17
03
FE
02
F9
F6
F0
E7
E7
ED
FA
00
FF
09
0D
07
03
06
08
06
FB
FC
02
06
03
FE
0A
1A
17
00
FC
FE
FE
EE
E9
E8
E6
E5
F3
FE
07
0D
0A
0D
0E
FE
02
FF
F9
FD
03
04
00
F7
F6
18
FF
02
0A
07
0A
F4
E4
E1
E5
ED
EA
FF
02
05
01
07
0B
00
F2
FD
FD
FD
FA
01
FA
F0
F9
00
00
FF
00
07
05
FD
F1
F2
F6
FB
FB
FA
FD
00
FF
0A
0A
FC
F1
02
FE
09
F9
FA
F2
F4
F9
F1
FE
04
00
03
F9
FF
F7
03
03
00
08
01
0B
03
06
00
08
F8
FE
F9
FC
F8
F6
F4
ED
EA
F9
F8
04
FE
04
06
F6
08
05
0C
0A
05
04
F6
04
04
FF
07
01
F1
01
F3
F0
EB
F8
F1
EF
08
0E
09
FE
03
01
F8
FA
00
FA
06
10
09
FB
F5
01
08
FE
01
04
05
FD
F3
F1
EC
E9
F1
F7
F7
04
08
04
FE
01
FF
FA
FB
F2
F1
02
FA
F3
FA
FB
EE
FA
05
15
0C
03
0C
FD
F6
F4
F7
F2
03
02
03
03
FE
04
04
02
FD
FC
05
0B
0B
0D
12
11
07
04
F2
09
1A
0D
02
0D
0A
FB
F8
02
FC
FF
03
03
03
00
03
FD
01
FF
FC
04
01
01
FD
02
06
0F
10
0E
03
03
00
FF
04
FD
02
03
FC
FC
03
FC
FD
FD
FD
FC
04
FF
FD
FE
FA
FA
01
00
02
05
F5
FB
0D
05
F3
F6
EF
F1
00
FD
FC
FD
01
03
FD
04
01
0C
09
FB
FB
FF
FC
FB
01
0C
1A
1F
14
0D
0B
00
FE
FA
FA
FF
F6
F6
02
02
FE
03
FD
FD
13
0B
F9
F9
FF
03
09
0A
03
07
11
1A
23
16
1C
14
0C
FC
FC
E8
EF
EB
F0
07
F8
01
04
06
0D
00
02
F8
00
0B
09
0E
0C
0A
09
11
19
21
1C
0D
07
03
FA
F0
F5
E1
D9
E7
F2
F5
00
04
04
FC
03
01
06
FE
05
02
0B
01
04
10
16
17
1B
0D
0D
04
FD
FA
0E
FB
E0
DF
E6
F2
01
0B
00
04
01
03
00
F9
FF
03
0D
0B
09
0F
17
0E
17
12
15
0D
07
0D
06
F5
ED
DA
E6
E9
FF
14
02
FC
01
FF
F9
FB
06
06
04
06
04
01
05
0A
17
1D
1D
1D
17
0A
08
00
EA
E5
E5
EC
08
1B
F6
FD
F7
F6
F5
FC
03
F6
F3
EE
EA
DF
F7
0F
17
1B
15
16
10
06
10
01
E3
D6
E7
EE
FD
0F
FC
FB
E7
F1
F5
F3
F8
F0
E6
DE
E2
D5
E8
02
19
16
15
16
11
0A
0F
05
E1
E2
E1
FF
04
03
FC
FD
E1
E5
F2
E8
E9
DF
D8
E1
DF
DB
E5
FE
12
0C
0D
12
12
0E
13
FE
E3
F4
E6
FF
FC
12
F1
F0
E0
DF
E6
EA
EE
E3
EA
FD
EE
EB
E7
EF
F2
00
03
0D
1B
15
0D
F6
E8
EE
E7
FA
FF
FE
EC
E5
E6
E1
EE
F4
01
02
0C
07
04
F2
EB
F0
F3
F8
06
0C
0C
01
FF
E8
E9
E4
EE
F9
F9
FE
EB
F2
F5
F4
06
08
0B
09
0C
09
FD
F5
F2
F3
F4
FC
00
09
07
01
F8
E2
E8
EE
F0
FE
02
FB
03
FF
00
0A
14
17
0E
03
01
00
01
FD
FC
FF
FD
FF
02
06
02
03
F5
EA
E8
F7
0B
09
01
04
00
01
04
09
05
0D
00
FF
FB
F4
F7
F4
F6
09
04
00
02
F6
F9
F5
F0
ED
EE
EE
0E
07
00
0A
06
06
06
05
F9
FD
FB
FD
F8
F8
F6
F7
F7
01
0C
05
FD
F5
EA
EE
F1
F1
F5
F2
04
05
FC
15
F9
04
02
FE
F4
F1
F2
FA
F4
F8
FA
FC
FA
09
09
FF
FD
F0
E7
EC
F3
EB
F2
0B
0C
0F
0B
13
FC
FD
FE
FF
ED
F9
01
00
02
F6
F8
FA
00
00
04
04
01
FB
F7
F8
F9
EF
FB
07
11
11
F7
07
FC
FC
00
00
FA
FE
02
0E
0B
08
10
10
02
07
FF
00
FC
FE
FA
FB
F2
FD
05
08
18
19
04
0F
FA
0C
01
FF
FD
FD
00
0B
08
10
12
11
09
07
01
FE
FE
04
06
FF
F5
FE
0B
0B
0B
FA
01
18
24
1E
06
01
02
FC
FC
FE
08
0E
09
10
06
02
04
00
06
07
02
04
FF
0C
14
0F
12
03
FF
0B
23
08
FD
0C
0A
05
06
04
09
04
04
03
08
01
08
09
06
03
01
FE
07
15
17
10
FF
FE
03
01
0E
FD
F5
FD
0D
11
04
08
12
10
0C
07
FB
F8
F5
02
FF
01
FE
08
14
0E
15
05
06
01
05
FC
08
05
14
09
04
03
00
06
05
01
06
FE
FE
F8
F4
04
F5
F3
FE
12
08
09
17
0C
02
FE
01
FE
F7
0A
0E
0F
0C
0B
0E
08
FB
05
15
00
FD
EE
DE
E7
E0
EB
F4
F4
F7
05
F3
FE
00
00
01
FD
01
02
F1
F4
02
0F
18
0C
0F
FE
F2
FF
03
0A
0C
02
FE
FB
F9
F3
FF
FD
F8
06
FC
03
01
02
01
FF
0C
0F
17
11
0E
00
08
02
FB
02
00
02
FE
01
F9
01
02
FC
FA
FB
FC
04
00
04
FE
FC
00
02
FF
01
FE
02
04
00
02
01
04
0C
0D
07
FE
00
FF
02
FC
00
03
FC
FD
FF
02
02
FF
FD
03
FF
FE
FD
FA
FC
F6
F8
F1
F8
EC
EA
F3
EA
02
FB
ED
F2
F2
F5
F3
F9
03
FC
FE
FC
FC
FC
FC
F9
F1
F8
FF
F9
FF
12
08
FE
FB
FA
00
FF
09
01
05
FD
04
04
F3
F6
01
07
01
00
FE
04
0C
0E
0C
00
07
09
17
17
16
10
0B
05
FD
02
F9
FF
FF
FE
02
04
FD
02
04
0B
FC
03
FF
03
08
13
FA
FE
17
18
0E
1C
21
18
16
0C
0D
0D
08
02
08
04
03
03
0A
08
0F
0E
FB
F5
FD
FC
00
10
F6
08
13
0D
0A
0E
0F
15
14
09
03
02
0B
06
02
00
01
01
05
06
02
09
FA
F8
01
07
09
0F
FE
09
13
02
04
13
17
10
0A
07
01
FF
00
FF
08
00
01
02
FF
05
0D
07
FC
FA
03
13
04
0A
0D
0B
07
00
0F
07
06
05
0E
02
02
F7
01
F8
00
06
FC
FC
0D
01
FA
0E
FF
FA
F2
0E
03
0E
0B
05
03
01
02
04
08
0E
0C
0A
05
03
F8
FF
06
07
01
FB
11
15
06
0D
04
0A
FE
07
0A
10
09
0E
05
01
FF
00
07
07
0C
0B
07
02
FD
FF
0A
FE
F7
FE
13
11
07
0B
07
04
06
06
06
17
08
0E
03
FC
FB
FD
06
08
0C
06
FD
EF
F9
F5
F9
FB
FB
F6
00
FA
FF
0B
12
06
00
08
06
15
09
F9
EB
F2
EF
F2
FB
FF
03
F2
F3
F1
F7
F9
05
FC
F3
E6
EE
F7
FD
03
0B
05
FD
03
08
03
EE
E8
DD
E0
E5
EF
F5
EC
F6
F8
FC
FB
FC
FC
02
FE
F4
F4
EB
F3
F3
F7
07
FE
08
06
0F
FD
DE
D0
C7
D2
DD
E9
EE
E8
EC
00
0B
FE
FF
08
03
FC
FE
F8
F1
E9
ED
FA
05
01
07
0A
10
FC
E5
C9
CA
D1
D8
E0
DE
E4
E5
F6
10
09
FD
FA
FE
01
F8
F7
F6
EF
E9
F7
10
02
0C
06
08
05
F6
D9
DE
DB
D9
DA
E8
DF
F2
03
05
08
04
FD
FE
FC
FD
FD
FA
F8
FE
FB
0E
07
FD
05
11
0C
FB
EB
EC
E5
EC
E9
EF
EC
FB
07
0A
04
01
05
03
06
09
07
04
FE
FE
10
10
0E
02
0A
0F
13
0C
FC
02
F8
02
05
FC
F7
F3
FE
FE
03
08
05
06
03
05
05
FF
F4
FE
18
10
1C
04
FE
0B
1F
14
15
10
0C
0C
11
13
08
F3
F5
06
0C
11
10
08
12
09
06
FC
FF
11
0D
06
1A
FB
00
09
10
17
16
1D
10
18
16
19
0A
FC
04
0B
09
0E
0E
0C
0F
0A
03
FB
00
05
12
13
0E
00
03
0B
1C
0E
15
17
1A
1C
14
0F
0D
03
FD
FD
07
0E
08
0A
05
06
03
04
09
09
0F
0E
02
05
05
10
0C
00
05
0B
0B
09
09
08
FD
FF
F8
00
03
04
08
0A
0B
FE
09
09
12
13
0C
0F
FB
03
03
0E
0A
11
03
FA
FE
FC
FB
FA
FD
F5
F4
F9
F7
FA
04
07
00
06
FE
04
16
17
0B
0C
FB
04
FD
0F
12
0B
09
FE
FE
FE
FB
03
06
FE
FF
FD
FF
FF
06
09
07
0D
08
06
11
18
13
15
FC
03
FD
06
15
00
FB
FE
FE
FC
01
FC
FC
03
05
09
02
06
0B
09
08
FC
08
02
FD
09
07
01
FC
03
FE
01
F5
F6
F0
02
04
08
0A
08
0B
17
13
13
16
13
13
0E
12
00
F2
F7
F9
FE
02
06
FE
FC
03
04
FE
F4
EA
F1
FA
F7
F4
06
09
07
07
06
0F
0F
0F
09
0B
01
F7
F3
00
03
01
01
FF
FD
00
FF
03
06
06
0E
0D
02
02
05
08
0B
1C
09
02
04
06
09
01
FB
FC
F9
03
FD
01
FC
01
04
00
02
FE
04
03
04
FD
04
01
FE
01
FF
FF
05
01
FD
FC
FF
FE
04
03
FE
FE
02
00
04
02
FF
01
FC
FC
FC
FC
01
06
FD
FD
FC
02
FF
FA
FA
FB
F9
F9
01
FA
FE
F6
03
03
01
00
02
FE
FC
02
00
01
FF
FD
03
01
0F
0E
0E
08
07
EF
F4
ED
E6
F3
EE
F4
F0
FB
F9
FE
00
02
01
00
04
03
FB
FD
01
10
05
03
18
11
0F
10
11
08
00
F0
E8
F0
EC
F1
F5
F6
F6
F1
00
09
0C
FD
FD
00
FC
15
FD
FD
03
0A
0F
0F
07
13
04
F7
ED
ED
EB
F3
F6
EE
ED
F1
02
05
0D
0D
09
FA
02
00
F8
14
07
00
11
12
11
11
13
14
05
06
FB
F8
04
FD
FA
FB
FF
F7
FF
F9
01
25
12
F8
FD
07
14
1F
1F
22
1C
17
1A
19
16
12
12
15
1A
1C
14
16
14
0D
09
06
02
FD
0C
19
0F
1A
FF
13
19
1B
0F
16
19
16
16
1A
16
1A
1A
20
23
23
19
16
18
0E
06
02
FF
FD
FC
FD
09
14
06
0F
18
09
0A
08
06
06
0A
0D
11
14
19
1A
24
1D
1A
11
10
0E
08
FD
08
FC
F8
FD
07
05
FF
07
15
04
0F
02
FC
04
02
FE
FB
02
04
0A
10
06
07
0B
0E
04
02
F8
0B
06
09
15
FB
01
00
07
0D
07
FD
FC
FB
FC
F7
F9
ED
EC
EE
FB
F3
EF
01
02
04
FB
03
FE
FB
03
06
07
08
F9
08
0C
02
04
FC
EA
F9
EF
F1
EE
EB
F6
EA
F0
E5
E4
F5
FD
FB
F6
F7
F6
FB
F8
FD
FA
13
E9
02
05
05
03
F5
E4
F0
EF
FD
FA
F8
F5
EC
E9
E8
EA
F4
FB
00
F8
F5
F4
F6
E6
E9
EE
F9
EE
F1
FF
09
01
E0
E0
EF
FA
FD
00
FF
F5
FB
02
03
F9
F6
FB
FF
F8
FE
FA
F4
E5
F3
F4
FD
FB
06
00
11
05
FD
EC
FD
08
04
01
03
FE
FE
05
05
FE
ED
F3
F6
F7
FC
02
F5
F5
00
FB
06
00
0B
06
04
02
04
FF
06
04
FD
02
FF
FE
FE
00
FF
02
EF
F0
F9
FC
08
08
F8
01
11
FB
FC
0D
03
04
11
01
FD
F8
01
FC
FC
02
07
02
01
FC
F8
F7
F1
F7
FD
F9
FE
08
08
00
06
F9
FB
12
FD
04
F5
00
FF
FA
F8
F3
02
00
FE
01
FF
F3
F0
F5
F5
FF
F7
F8
01
06
06
FC
FC
02
06
07
07
05
F3
F9
01
FD
FB
F3
01
F9
00
F7
F7
EA
EB
FB
FE
02
01
05
07
08
10
08
FA
FA
0F
09
FC
02
00
FB
03
FB
FC
F9
00
F8
FD
F8
FD
F1
F8
F8
F9
07
00
05
0A
0A
0B
09
FF
FC
11
07
01
02
00
09
07
08
FB
02
08
FA
FC
FD
00
FD
FC
FE
00
02
FE
02
04
08
01
03
FC
01
05
FF
FB
01
01
01
FB
FA
FE
FF
FF
F8
00
02
0A
05
03
01
0A
FF
FA
0B
FE
FD
09
0C
FF
06
12
05
FC
FF
04
02
F9
F5
03
02
FD
02
04
0A
08
03
09
04
0B
05
02
09
04
03
06
0D
11
0E
09
05
FC
FF
13
15
12
16
1E
14
0A
08
0E
12
0A
07
08
04
06
07
07
07
0D
07
0F
18
11
09
FA
FC
04
FE
07
12
2A
26
16
10
07
12
0F
09
12
17
16
10
0C
08
0D
07
08
0B
10
0F
17
FC
02
04
01
FD
F8
0D
0A
09
0C
17
1B
25
24
1D
1D
1C
0B
17
19
19
19
18
0D
15
19
19
1D
07
08
00
02
FD
FD
FB
F3
F6
F8
00
20
1F
28
22
1A
25
21
1B
21
19
1D
20
1A
0E
01
FE
02
0B
FE
03
04
FD
FD
FF
03
0A
09
10
13
10
12
0C
0A
28
1E
0C
0F
18
0C
FE
02
01
F6
FF
01
04
04
FF
01
04
FD
02
FF
FE
03
04
FD
FF
04
02
02
02
06
04
01
FF
00
01
00
FD
FF
FC
FC
FF
FC
FD
03
FD
02
04
FE
F8
F2
F3
F4
F8
F3
F4
F0
F0
09
F2
FD
F2
F2
EF
F6
F5
F3
F9
FF
FF
03
03
03
FE
FC
F2
EA
FD
F3
F0
F6
FF
F2
EC
F3
FC
FD
FE
04
04
0B
06
00
02
F8
F2
F8
00
02
FD
02
FF
FC
F1
E6
03
FA
FC
EC
F5
01
FA
EA
EA
FC
F4
FD
08
09
04
02
FE
F7
F7
F9
06
FD
05
03
FB
01
F2
FA
01
FE
04
FD
FA
04
FC
FE
0D
04
FA
00
03
06
02
06
02
04
01
01
FF
F9
FC
FC
FF
FD
F6
F9
07
07
07
0E
06
FF
FB
04
03
03
FD
FE
FA
09
09
03
FA
FF
0D
00
09
EB
FE
01
01
0F
05
0B
11
08
03
01
01
FF
FC
0B
06
01
EF
DE
EF
F6
06
FD
FF
09
12
FD
00
F8
F9
03
04
1B
12
0C
04
05
FF
FF
0B
03
07
08
0B
F9
E5
E2
EE
05
0D
0B
01
05
08
09
FD
FE
F2
02
12
14
03
05
FF
FE
FB
00
10
08
09
14
0B
F7
EB
E2
FA
0A
0F
09
FF
03
01
FC
F2
EB
F4
06
10
03
FD
F4
00
01
F7
FC
01
FD
0A
09
08
F3
E4
E4
00
0D
14
12
0D
0A
FC
F1
F2
F0
FD
05
06
08
FD
F9
02
FC
F9
FE
FA
02
07
06
02
E9
DA
E5
07
15
13
11
0F
01
EB
EE
F2
F2
00
03
05
00
FD
F4
FC
F9
F7
F4
FE
06
0D
0A
FB
DF
DB
F3
03
14
13
FF
02
F9
EA
ED
F9
EF
FE
06
0A
FE
06
F7
F6
F7
F1
FA
02
05
14
18
F8
DB
E2
FA
09
0E
07
FA
FA
00
DD
FA
06
03
FC
FE
03
13
FF
E8
F3
FD
02
06
0A
07
16
05
EB
E3
EA
FC
06
08
F7
F5
F1
EB
E9
F9
16
10
01
F6
04
12
FC
FA
01
0A
10
04
04
0A
05
F5
EA
ED
F8
05
05
07
07
F2
E8
F4
F1
F7
0E
0F
07
FD
F7
09
0D
F9
05
10
0E
08
08
05
F8
EC
E8
F3
01
03
0A
04
07
F7
F9
FD
FA
F7
FA
0A
06
05
F7
02
09
F7
00
07
0F
09
00
F7
EC
EC
F8
00
09
09
0D
0B
0A
08
12
08
06
FF
F9
04
09
02
F9
0D
08
05
00
07
06
FE
F2
ED
F1
F6
06
0C
06
08
0B
12
06
0E
0F
08
12
12
08
0A
15
FA
FB
08
06
02
04
02
09
FD
F1
E3
ED
07
0E
0D
06
0A
03
0C
02
0B
04
03
12
1A
0C
11
0C
FF
FC
FF
FF
F6
FE
FF
FF
F4
F6
F0
F7
FF
0C
0C
FF
FB
04
FA
FB
FC
05
04
07
03
01
12
F3
03
02
04
F9
F7
F3
F5
F4
F3
FC
FD
07
0E
0B
FE
FC
FD
FD
EF
00
FF
FE
01
00
FD
F3
0A
00
FD
06
FF
FF
ED
E7
EB
ED
FF
02
04
0B
04
06
FA
FD
00
F8
F8
02
FB
04
07
0D
0C
F5
FE
FC
FC
03
FD
F5
EB
EF
F2
02
00
05
07
0C
06
09
F3
F7
F7
F0
F0
FD
FC
00
07
0A
0C
FF
F3
00
03
03
F7
E3
F6
F0
08
0F
02
06
07
09
06
06
FD
FE
FA
F0
F3
FC
F4
FB
F4
F8
FB
FD
F8
04
FE
01
04
EB
F0
00
0D
04
FE
05
00
0E
0A
09
05
08
04
00
F4
EC
E7
F1
F6
F1
05
0B
FF
FC
FD
FD
F2
0D
0E
FD
03
08
FE
FF
FF
09
06
00
0A
12
14
02
F4
E2
E6
ED
F3
ED
EA
F8
FD
03
04
04
FC
01
F4
F5
FD
FE
FC
F8
F2
FC
F9
FF
FD
07
04
FC
FC
F6
EE
F8
FA
05
02
09
FC
FD
FD
01
02
FD
0D
0B
01
FA
F8
FF
FC
F4
01
1A
FD
F8
0A
1A
0C
02
FF
03
FF
04
FB
FC
04
FF
00
FD
04
02
04
01
03
FE
04
04
FF
00
FE
00
04
FF
02
01
FE
00
01
FF
02
FF
FE
FF
FD
03
FE
05
FF
04
FE
FC
02
02
FF
02
03
03
FD
03
04
02
01
FF
FF
FC
00
FE
04
03
FD
FD
03
03
FD
01
00
04
FD
00
FC
03
FE
02
FC
FF
02
00
FD
03
02
00
04
02
04
FC
FE
FD
03
02
00
FF
FC
FE
FD
01
FF
04
04
FD
00
00
04
FE
01
02
FC
FD
FF
04
05
00
01
04
FC
FD
FD
03
FD
01
03
04
FC
FF
FC
FE
04
04
FE
03
FF
02
00
00
01
FE
00
FE
01
03
01
01
05
03
FE
FF
FC
FF
01
00
FF
01
FC
FF
FC
04
01
FD
01
FE
FF
03
FF
00
03
03
FD
FB
FC
05
FD
05
FE
FC
02
03
04
FE
FC
FC
00
03
03
FD
FC
FB
01
01
01
FE
FA
FD
01
FF
03
02
FB
01
01
FF
00
03
FE
03
FE
FF
02
01
FC
00
FD
03
FD
FD
FB
01
FD
03
FB
FE
FB
FB
01
FF
FF
FB
FC
02
FD
02
FE
02
FD
03
FF
00
FD
00
FF
FF
FD
01
FF
FD
02
FC
02
02
FC
FD
FF
00
00
FD
FD
03
FC
FF
01
00
FC
04
01
01
00
02
03
FD
01
03
FC
FF
03
03
02
FE
FB
00
01
00
FB
FB
FF
03
01
01
00
04
FE
FF
02
03
03
00
FD
03
FE
01
FC
FD
FE
03
FC
FD
FE
01
02
02
02
FF
FE
FE
FD
FE
FC
04
03
FE
04
02
04
FB
FE
FB
02
02
02
01
FD
FE
FC
FF
FE
FC
FC
FF
FC
03
FB
FC
FE
FC
00
03
FF
FF
FF
FC
02
02
FD
FD
FD
FC
FC
FB
FD
02
FE
02
01
FE
FC
01
02
01
04
03
02
03
02
FC
FC
00
01
02
01
FD
FB
FB
FF
04
FC
00
FF
02
FE
01
01
FD
FC
FE
FD
04
01
FC
03
FE
FD
FC
FB
01
01
02
FE
04
01
FB
02
03
FC
01
03
FF
FE
03
FB
FB
FC
FA
02
FC
FD
02
FC
FE
03
FF
00
03
FB
FC
00
04
03
01
02
03
02
00
00
02
FB
FC
FF
FE
02
FC
01
FC
FB
FF
01
FF
03
04
FE
02
FC
02
FE
01
FB
00
FF
FF
FB
FD
04
FC
01
01
FE
FB
02
FE
FE
FF
FE
00
FC
FE
FE
FF
02
02
03
FC
01
FD
FF
FE
FC
FD
00
FF
FD
00
FB
FD
FE
01
FE
FF
FB
FE
03
FD
FD
FE
02
FD
FF
02
FB
02
01
FF
FB
FD
01
02
00
03
FD
FD
FC
FE
FA
FF
00
FB
FF
01
FB
03
02
FC
02
FE
00
FE
01
FF
FB
00
03
FE
FC
FB
FB
02
FE
02
02
FD
FC
00
03
FF
FD
FE
01
00
04
FE
02
00
FD
02
FC
03
FF
01
02
FC
FB
FB
FE
01
FC
02
FE
00
03
FB
FC
03
FD
FC
01
03
FE
FD
00
02
03
03
FE
04
00
FD
00
FC
FD
01
FF
03
FD
FF
FB
FE
02
00
FC
03
FD
FC
00
01
FD
FE
FE
04
FF
FD
03
FD
03
FF
FA
00
FE
00
01
FF
02
02
00
FF
02
FF
FE
FF
FF
FB
03
01
FF
04
00
FE
02
01
00
01
FB
02
03
FC
FE
FF
FC
02
FE
02
FF
FF
FD
FD
FB
01
02
FE
00
FF
04
02
FD
FF
FC
03
FC
FF
03
03
FD
00
FD
00
FD
FE
01
FE
03
03
03
FE
02
02
FE
03
FC
FF
04
FC
FE
01
FF
00
FD
FF
FC
FF
01
FD
FD
02
03
FC
FB
FC
02
03
FC
01
02
FD
00
FC
FE
01
00
01
FD
FC
01
FF
02
00
FD
FC
01
FF
01
05
00
FD
02
04
FE
03
02
FF
02
FD
00
FE
00
00
04
FD
00
03
03
FF
FC
FD
00
05
FD
01
04
00
FD
02
FF
FF
FD
01
FE
04
03
FE
03
04
00
FE
04
04
FE
FF
FD
04
FD
01
00
FD
01
00
03
05
04
03
0B
0B
0B
09
02
FC
03
01
FC
FE
FD
03
FC
FE
00
00
04
03
FE
FE
01
06
0E
0F
0A
0C
0B
0B
13
0F
00
22
19
1B
1C
0E
11
17
10
0C
04
03
03
FF
FC
00
0A
0E
1B
03
0A
16
12
07
10
18
10
08
06
17
19
19
1D
1D
0D
14
0B
19
FA
F8
00
03
FB
00
06
11
1A
0A
15
0E
18
1B
10
0A
12
0E
01
05
FE
00
06
15
07
07
09
04
06
F9
09
FF
FC
FE
06
02
0A
04
09
08
10
10
12
03
F9
FE
FD
04
FC
FE
08
0B
00
F6
EF
01
FD
F4
FD
05
01
FD
13
0C
0C
FC
00
05
FB
FE
F9
F5
F4
F7
F6
FB
FC
F9
F5
F4
F8
F6
F5
F4
FE
F1
11
08
05
09
01
10
0C
08
01
02
FD
F8
F9
00
F6
EA
EB
ED
ED
E5
E9
E5
E8
E2
EC
F2
05
03
08
04
FC
17
F3
03
15
02
FE
FF
FA
FA
FB
00
F3
E7
F4
E7
E0
E3
E6
D8
DF
E2
DE
E9
F6
03
F9
FC
0C
1D
F4
F9
09
FD
F8
F4
F3
F0
FE
F3
ED
EB
EB
E4
E1
EE
E3
E6
F7
EE
EE
F9
FB
00
EC
FB
06
FF
F5
02
0A
02
F4
FE
FD
F3
EE
F5
ED
EA
FB
FD
04
FB
F0
F3
FF
02
F8
F2
07
06
01
FC
06
04
02
02
04
05
FF
04
0A
00
00
F6
F3
FC
0D
17
18
15
03
FC
07
0A
FE
07
10
04
0F
EC
02
12
0C
FF
0C
07
FC
08
0A
02
FD
FA
EC
00
14
1D
1C
18
1A
0B
0B
14
0D
10
13
0C
00
04
04
03
01
07
04
05
F2
06
03
FF
FA
F9
FA
09
1A
16
0D
0F
11
09
0A
09
0B
00
0F
15
05
15
0D
00
0F
0A
01
08
F9
FC
FE
03
FF
FC
01
0B
14
0F
0E
03
0D
0D
08
08
05
11
0E
07
02
04
05
00
13
16
F0
FF
00
FF
FC
01
04
00
FD
0D
13
08
0B
FD
0F
0E
0E
10
10
12
12
05
03
03
00
04
09
11
F4
FF
08
FD
FA
F7
F3
F9
08
19
17
05
06
06
13
0F
0E
0F
02
FF
17
19
EB
FC
F4
02
FD
1A
FB
08
05
02
F6
F1
E8
F3
FD
10
16
05
01
0C
12
11
06
0E
02
02
0B
17
04
F9
FE
FE
00
12
05
0A
10
FA
FA
F5
F2
FD
FD
0A
0C
04
06
10
10
08
04
04
F4
F2
F4
0E
F7
00
0E
FB
FF
0A
01
0B
09
0A
0C
00
04
07
0A
11
0D
10
0F
10
0A
FE
F2
F5
EB
F8
F8
1A
F7
00
09
07
11
03
FD
FD
05
02
08
0E
0D
13
13
15
16
11
0D
0F
0B
FC
F5
ED
F5
F2
F8
0A
FB
03
FC
F4
0A
FE
F6
00
FF
09
08
10
14
15
11
11
18
0E
0D
0B
0C
F0
F2
EA
E6
E1
EB
F1
06
0A
03
FC
F9
F4
E7
EE
F9
04
00
0A
08
10
0C
14
16
0F
05
09
00
EE
E5
E9
D8
DA
E5
F9
11
FE
FE
00
F2
F5
EA
F5
EA
EC
F2
05
03
F9
F7
05
FB
02
00
F6
EF
EA
E4
D4
D3
D6
E7
0C
0D
FD
01
01
01
F0
ED
F6
E9
E0
E7
F4
F6
EC
F2
ED
EA
F0
EB
E3
CB
DF
E2
DF
E4
DB
E9
00
13
03
04
FF
03
F3
E5
F3
EF
DC
E0
EC
F1
E4
EA
E4
EA
DF
DD
E0
D3
E2
F2
03
F3
E8
EA
04
0A
01
FD
FE
FD
F2
E9
EB
F0
E3
D5
D5
DD
E8
EE
D2
CE
D9
E3
EF
E3
F0
F3
EC
F5
ED
EF
FE
02
01
FE
FF
03
FC
F1
F2
F6
F0
E9
DA
ED
F5
DA
EA
DD
E6
F0
F4
ED
FB
FE
F1
EE
F1
FB
02
FD
FD
04
FD
02
03
09
0E
13
0B
0D
08
00
FB
F5
04
F4
F5
03
F8
F0
03
0A
FD
FC
FD
01
FE
02
FE
FE
00
FF
00
04
FD
00
02
03
00
03
04
0B
07
F4
FC
FC
FF
04
FC
FF
01
03
FC
FD
FE
03
04
FD
05
FE
FC
01
FD
FD
01
10
0B
0F
FE
03
06
14
FC
EF
F8
1C
0A
0D
19
10
01
FC
00
FE
FE
03
FE
03
FF
05
09
03
06
12
14
09
0E
0D
1C
1D
22
13
FD
FC
0D
14
16
1E
10
00
F9
FD
FF
FD
00
FB
01
00
07
11
0E
0A
0F
15
0C
08
09
0C
0B
05
F5
EF
FC
02
07
0C
15
0D
F3
00
01
FE
08
0B
08
18
10
FF
FC
0B
02
F7
F5
FD
06
00
FD
05
FA
FC
07
0A
03
0D
FC
FB
F3
06
10
FC
04
09
FF
13
10
0A
0C
06
F7
EB
EC
03
FA
FF
FF
05
0C
04
05
01
09
04
0D
09
05
0D
14
FF
0B
FC
13
14
1B
13
0C
02
FB
F3
F0
F9
EF
F0
F7
FD
FC
F7
09
08
0F
01
FC
F5
00
F8
07
03
1E
0D
22
25
17
06
08
F8
04
03
FE
F2
F0
EF
F4
F2
01
09
17
13
0B
FE
F6
F8
F2
FB
06
03
16
1F
1C
20
16
04
0D
FD
0B
FE
FB
F9
EE
EB
F9
FC
09
0B
17
0D
00
F6
ED
EB
EB
F5
02
04
14
0F
10
1A
0F
05
05
04
08
F7
F9
F0
E5
F5
04
0C
0C
0B
0F
07
F7
EF
F5
E9
F4
FD
0C
04
0C
17
0C
0E
FD
03
01
01
F8
F1
E9
E1
F2
0D
12
11
12
15
0E
FE
E9
EA
ED
E0
E1
FC
0F
00
0E
0F
0D
08
01
FD
FC
00
F9
EF
EA
F6
16
25
1C
07
FD
F9
04
F3
F0
F0
EB
E3
DB
03
16
03
06
0E
FD
F3
F8
EC
F6
FA
EC
EA
F7
15
1F
1B
11
04
FA
FC
F5
F6
00
06
01
14
FF
01
10
FE
02
12
FB
E9
F2
E6
D9
EA
F5
F4
FF
1A
1C
15
0A
04
F8
01
FD
0D
0D
06
04
0A
06
01
FD
FD
08
0C
F7
EC
F3
E1
E0
EE
FB
FD
10
20
19
17
0B
02
00
F9
0C
03
0E
09
FB
01
02
EA
FB
FF
0B
14
F1
EE
F1
EF
F0
FB
FD
FF
19
18
1C
1A
09
01
FC
06
0C
FD
0B
06
0A
FE
FE
05
07
00
07
23
03
EF
F1
F9
06
05
0A
08
17
1D
1D
15
03
FC
04
0D
0C
02
FF
F7
01
08
05
FA
01
03
17
1F
04
00
F3
F4
05
04
06
08
18
1C
1A
0A
FF
FA
00
01
01
FB
09
09
0B
17
10
03
EB
0A
13
25
1E
00
FA
F4
00
02
0E
0C
0A
16
10
FF
FB
FA
FC
00
F9
02
00
00
02
02
0A
13
07
00
FF
0A
20
10
06
05
03
03
13
0A
04
FF
01
01
FE
FE
03
FA
F7
FF
FF
F6
F6
FA
FE
F9
07
00
FD
FE
28
0F
FA
02
10
06
06
FC
F6
FB
F5
FD
07
FB
F9
FA
FD
FF
FE
F8
F8
FE
F6
FF
FF
01
0B
10
1C
03
05
0D
0F
0B
F9
FB
F8
FE
FA
00
00
FE
FE
F6
FB
01
FB
01
FB
F9
F4
F9
02
00
04
14
01
05
13
0B
06
04
FF
02
FA
FC
FE
FE
08
FD
F9
F5
FC
F5
F9
03
FA
F5
F8
02
FC
FC
FE
0C
F9
04
01
0F
0E
FB
03
04
03
09
0B
07
05
03
F9
FC
FD
F4
FB
FB
FB
F1
F9
03
FF
FD
FD
06
0C
01
FE
0C
03
02
FE
FE
0C
03
00
04
00
00
F8
EA
F5
F5
F6
F4
FA
F2
FF
05
FF
03
FF
F7
18
02
FF
00
F9
F2
F9
F8
FB
FB
F6
F2
F0
EE
F1
EF
E4
E8
DE
E9
07
0C
FD
03
FD
00
02
01
FC
ED
F0
F5
F0
EB
E5
F4
FC
EA
E8
DA
DE
EC
EC
EA
E6
D8
E3
E8
F4
F8
04
03
FD
03
FC
00
FE
07
0D
F5
FA
F1
F2
F8
F5
F7
F9
F7
FF
10
06
FE
F6
F8
FB
FC
05
01
01
02
FD
FE
FE
01
FF
FC
04
FD
FC
01
FE
FF
02
0E
0D
03
FD
04
05
00
00
00
FF
03
FC
00
01
FC
00
03
FE
04
03
01
01
0D
07
0C
0A
07
01
08
FE
F2
F2
FB
F7
06
06
02
0D
06
06
01
FC
01
FC
03
FE
04
F4
F0
12
09
11
1D
1C
1C
24
1C
FB
06
FD
FD
02
12
FE
0B
16
13
0B
FE
04
03
FD
FF
FF
F3
F4
FE
0B
0E
15
0A
0C
0E
0F
00
FD
07
09
FF
FC
01
00
FB
15
16
17
0E
FC
0A
FF
FE
FC
F4
EE
FD
05
0E
0C
0B
08
0E
00
0B
06
0B
FE
04
09
05
FC
F8
00
06
08
1B
1E
17
12
00
03
F7
FB
04
FB
FE
0C
0B
0C
03
04
18
0E
0C
02
08
06
02
F8
FE
F8
F7
03
0F
2D
17
10
FD
09
0C
03
15
0C
09
0F
13
14
06
06
0F
01
FC
00
F9
FB
EB
F7
F1
ED
F6
FF
1A
37
17
16
FD
1A
11
17
1C
14
0D
0C
12
0F
03
03
01
FB
FA
FB
F1
F5
F2
F9
F5
F7
FA
FF
0D
28
22
12
F9
0D
0F
18
17
12
0B
11
03
07
FA
FE
03
06
FB
F3
F0
FA
FA
FE
FD
FB
05
0A
0F
17
28
15
06
12
0A
06
08
0A
02
FD
FD
F6
EF
F8
00
00
FC
F6
F4
F7
04
08
09
07
07
09
08
19
26
FE
04
08
07
00
05
01
05
02
FC
FA
FE
F8
05
02
F7
F6
F4
00
06
0A
09
05
04
03
0B
08
19
00
01
03
04
01
FC
05
F6
01
FD
FD
FF
05
0F
02
FC
F7
01
FA
FE
02
FA
F9
00
00
05
0D
19
F6
FE
07
00
F7
EE
FB
EC
F1
F4
EE
FD
0D
0A
06
FF
00
09
FE
FD
FE
FC
FB
FB
FB
04
0B
0C
FF
F5
FD
05
F6
DE
F3
EB
E9
F2
F0
FB
0C
0F
0B
FF
07
07
FE
F7
F5
FD
FC
F9
FA
07
09
18
0B
0A
00
FE
F2
EB
ED
EC
ED
EE
F3
FC
07
06
08
0C
0F
0C
F9
F3
FB
FD
FF
F8
F7
F6
FF
16
0B
07
FB
F4
00
FC
FA
FC
ED
F0
F6
FB
07
02
0D
14
11
06
00
FD
00
03
03
01
03
01
11
13
16
03
FA
F4
0D
FB
F7
FF
F6
FD
05
06
07
0C
10
14
0C
08
06
05
0C
07
0A
09
07
07
23
17
0D
02
F6
00
12
04
01
0D
04
09
04
06
0C
0B
0F
07
08
FF
02
0A
0A
0C
12
11
0C
07
13
0A
FD
FD
FA
01
1A
0F
15
11
0D
09
05
05
06
0C
14
08
06
00
04
03
07
0A
0D
0C
0C
0A
08
0D
0F
F9
F8
04
12
18
12
0F
06
07
08
09
04
01
07
08
07
F9
07
F9
01
FF
0B
09
03
EF
F6
10
02
FF
FA
0A
14
0F
0B
08
0D
09
06
02
FD
FA
00
07
02
FD
FE
F9
FA
04
06
05
02
F7
FC
03
FA
01
05
16
07
0B
FD
01
08
00
02
04
05
0B
07
09
01
FA
09
F3
FA
F8
FF
09
0B
FD
FE
F4
FB
01
FE
10
01
0C
F5
FC
09
03
01
09
13
0A
07
F9
FE
00
FB
F2
F8
F3
FE
05
08
02
FA
EC
00
03
04
08
09
1B
FC
FC
00
07
08
0A
06
05
FF
FB
FD
F9
EB
F3
FD
FA
01
08
0D
FB
FC
F0
FE
01
03
0B
00
FF
F9
07
03
05
09
00
11
07
06
0C
06
06
EF
EE
F9
FD
00
04
06
07
08
FE
FC
02
FF
FC
08
F9
F5
06
FE
EF
F9
0F
11
04
FC
05
11
02
F8
F7
FE
F7
02
09
11
0A
00
01
03
01
FC
FE
FB
F2
FE
01
F1
F8
F6
FC
F6
EF
ED
F0
F0
EA
EA
F8
F8
F4
F2
EE
FF
04
08
FE
02
FE
FD
00
FF
10
0E
F9
00
00
FC
F9
F4
F4
02
EC
FE
06
05
00
09
FD
FC
F4
02
01
02
FD
FF
04
01
FE
03
04
FC
FD
03
FF
FD
01
04
FF
09
08
06
02
02
04
FF
FE
03
FE
FF
00
FD
01
00
FF
FE
00
FC
01
02
04
00
FE
00
F6
F9
FD
F7
00
0E
0A
02
F3
FD
FB
EE
F6
02
FF
04
FC
FD
00
FC
00
11
0C
FB
F1
E0
E9
E9
F0
EF
F7
FD
F8
01
07
05
FD
F9
F6
F2
F3
F9
F7
04
FE
FF
00
FF
05
0D
0B
FE
04
07
0E
02
05
04
12
04
0A
09
10
12
19
09
11
0B
EF
FD
FD
03
FD
00
03
FE
0F
0F
00
06
07
0D
07
0A
02
04
07
04
09
10
0A
00
01
01
02
08
F2
E9
F8
F4
0D
FF
03
FD
FE
0A
FC
0B
0A
0D
09
04
FE
FC
F9
FD
FE
F9
F9
FA
F7
F6
FD
FB
EE
E2
EC
F6
0B
FC
02
01
0B
0D
0B
04
0C
06
04
F8
F7
F3
F2
EC
E4
E9
E7
F9
FF
01
00
FE
FC
FC
F5
03
06
03
FE
13
05
0E
01
FA
01
00
F5
F0
F8
EE
F8
F3
F4
F8
F3
00
05
03
02
00
04
0C
01
05
06
0C
F7
0E
FA
07
02
F8
FB
00
F4
F0
FA
FF
09
05
08
0B
11
0B
0D
05
07
05
13
13
13
04
11
14
00
12
00
05
09
FD
07
03
02
07
0C
10
18
1C
1A
0F
15
17
0D
0E
09
10
19
14
1F
28
18
1A
01
05
03
09
09
FB
04
FE
05
0F
16
17
14
22
21
16
15
0C
10
0B
0C
0F
16
0F
17
1B
19
13
02
09
16
19
0B
FD
02
08
07
0A
0F
0C
0C
1A
1D
11
02
08
13
07
0D
06
16
13
0D
15
17
0A
03
05
10
10
03
03
FE
FB
F7
FA
FE
F4
F4
FF
08
0B
06
0A
09
FD
FE
FA
FB
FE
F3
01
11
F5
FA
01
0E
04
FC
F9
FA
F1
EE
F1
EE
E8
E3
EE
01
FD
0D
01
01
F9
FD
F6
F0
F0
F7
00
FF
F5
02
09
13
06
FB
FE
F5
EB
F2
F1
F7
EE
EE
F2
FB
00
00
00
06
03
00
FF
F7
FD
02
EF
E9
FE
02
0C
08
FF
08
09
03
F6
F7
FE
F9
F8
EF
F7
FA
FA
F5
FC
0C
09
0D
FD
01
07
07
ED
EC
F1
00
0C
0A
FC
09
08
06
00
00
01
FB
F9
FA
F7
EB
F3
EF
F8
08
03
05
F8
F3
F5
FD
DB
EC
FD
01
10
F9
00
07
06
09
0A
05
03
00
F9
F8
F6
F7
FA
FB
03
FC
06
02
F8
F3
F9
01
E7
ED
01
0D
0B
01
FB
03
09
04
04
04
0A
FE
01
FB
FF
F7
FF
F7
06
03
03
08
F8
F5
EE
F2
F0
01
F3
00
14
02
FB
FB
05
08
FE
08
07
04
FA
FE
01
00
F6
FE
01
09
09
02
F4
F2
E8
FB
F0
FD
F7
FD
09
EB
F6
F1
FE
07
01
02
FD
FF
FA
F9
04
FA
F9
FC
07
03
01
F7
EA
EA
F6
F4
F3
FE
FD
02
FA
F4
EA
F0
F5
FE
FE
FC
F6
FA
FE
02
FE
FA
FD
F9
00
04
F8
EE
EB
ED
ED
EA
F6
F7
00
00
03
F7
F4
F8
F8
F5
F6
F2
F2
F6
00
02
FD
FF
FB
FF
00
FA
F7
F2
EA
F4
F2
EF
F4
F0
FE
FF
FD
08
03
10
06
F3
F4
EB
E9
F3
F4
F5
F8
F9
FF
FB
05
F7
F7
EE
E8
F0
F2
01
F9
F1
03
01
04
02
0B
1B
1C
06
FC
F7
F8
FD
01
00
0C
FD
07
06
02
F4
FD
FB
EF
F3
F3
F6
F7
F8
FC
02
04
F6
00
03
0C
0E
1A
14
08
0A
11
1A
14
16
15
18
0D
0A
0F
03
FD
01
FD
07
FF
03
FC
00
FC
03
01
EA
F1
F5
0B
10
19
1B
17
10
1A
1A
18
1C
21
1E
1B
09
08
12
0B
02
08
FE
FC
03
02
FC
03
0C
0C
10
1C
0D
05
18
10
08
27
1A
07
07
16
11
03
02
05
0D
0D
FF
04
04
FF
01
04
FE
03
FF
00
00
04
FC
00
FD
03
03
09
03
02
FD
FC
00
FF
00
02
03
04
FD
FD
01
02
00
01
04
00
00
FE
03
05
00
03
02
03
0B
07
0E
16
00
04
10
0B
0F
0F
05
02
FB
FF
FD
03
00
FC
02
05
06
04
06
04
05
FE
F9
03
00
01
00
0C
15
0E
09
0F
10
19
18
0E
05
FC
FC
02
FC
FD
03
07
0F
07
03
03
01
04
03
0B
0D
01
0B
08
0C
0D
11
09
0E
0C
00
08
0A
F9
0A
FF
FF
02
FF
06
03
FC
FB
F6
FA
F9
FC
FD
FD
02
00
0C
0F
0A
FF
0E
03
02
FB
03
01
FE
01
07
FE
FD
07
04
FF
FA
F9
EF
ED
F3
F6
F7
F8
FA
FA
09
02
09
0B
10
0D
04
FC
FD
08
F3
06
0B
FD
FE
F6
F3
F1
E9
E8
E9
F3
EE
F0
F7
F1
FF
00
04
0A
08
07
0A
0F
04
FF
F6
F9
01
FB
09
FF
F4
F5
F1
E8
E2
DD
E6
E9
EF
EE
F5
FF
FE
0A
0D
0C
08
06
07
03
00
FF
FA
FF
FC
FF
09
FE
EC
F7
E4
EC
E7
EB
EE
FE
01
02
FF
FF
FF
07
07
09
02
FC
FC
F7
FF
02
F4
F7
03
00
FC
FE
F8
F2
EC
DD
E2
FF
FE
06
09
08
05
F4
FB
02
08
01
F8
F6
F1
F9
F2
F8
F7
03
F7
F4
F0
FF
FC
E4
F5
E3
EE
F1
08
08
05
00
FB
F9
02
0C
0B
FD
FE
01
FD
FF
F5
F8
FF
F6
ED
F0
F1
FE
F7
E7
F4
E9
F1
FB
00
04
F9
F5
F4
00
14
17
12
0B
05
0B
00
01
03
F6
ED
F2
EB
FE
02
FC
F9
F6
E5
E4
F5
FE
F8
FB
FD
FE
02
0F
1B
23
0F
07
0B
07
FF
09
FB
E8
EE
E7
E2
EF
FD
08
F8
EF
ED
F0
EB
F3
F3
FE
F7
FB
03
18
1A
11
0A
05
04
02
04
FE
ED
E6
E4
DE
E5
F5
F8
F6
03
F5
EA
E7
E6
E7
E9
F6
F4
F8
06
19
1C
09
01
FB
00
F8
F7
F4
F1
ED
E0
E5
F3
F0
F8
F8
07
08
E8
EF
EA
E7
E4
ED
E3
EE
07
13
14
08
F9
02
FE
FE
05
04
F7
F1
E7
EE
F2
F3
F4
FA
0B
0B
F4
00
FA
EE
E6
E8
DF
EC
03
03
F9
F7
F2
F5
F7
0C
0B
09
F0
E7
E7
F2
E5
F0
F0
FC
0D
FE
08
0B
FD
EC
F2
E6
E2
E6
ED
EE
F2
F0
F7
FA
02
13
12
03
EB
E7
EC
EC
E2
F7
F6
EF
13
05
12
10
FF
F8
EF
EE
E4
DB
EA
EA
F5
F7
FA
06
18
1D
15
FB
E3
DB
DE
EA
F0
F8
04
0C
F9
F7
10
17
0D
04
F9
F8
F6
EB
EE
EF
FA
00
07
12
1B
1F
0E
EB
E3
E5
F3
FA
04
FE
0A
04
0E
EF
00
14
1B
0A
02
04
0B
06
FC
F7
FF
05
08
11
1E
1A
00
E5
E3
F0
F2
FD
FD
FD
0A
01
FF
F4
FD
14
18
0C
10
13
0C
0C
00
FE
08
07
05
09
11
06
EC
EC
EB
ED
F2
FD
FF
F9
01
03
02
F8
FC
05
08
07
FE
05
09
07
08
0B
0C
07
06
FF
FB
F1
E1
E4
EB
F4
FF
04
04
08
02
02
03
0C
FB
F3
0A
01
07
07
FE
07
06
0A
09
02
03
FC
F2
ED
E7
E9
F0
F0
F7
02
FD
11
02
FD
FD
08
09
06
03
06
0E
09
0D
12
0D
0B
02
F7
F4
FD
F6
FD
EB
EF
F4
FD
03
F7
FF
04
FE
FF
04
05
FF
F2
00
09
0C
12
14
07
FB
FD
F7
F6
F3
FF
05
FD
F5
FD
FE
01
FE
F7
04
02
FF
FD
FF
FD
0A
14
0D
0A
06
F9
0B
06
06
F9
FA
06
01
0D
19
12
02
06
03
04
FE
00
01
FF
04
01
03
02
03
F8
FD
F5
F3
FA
F0
F7
01
F5
E6
0B
0B
02
F7
03
07
FE
02
FF
04
FC
01
FC
00
04
FF
04
FF
02
02
FC
04
FC
FD
FF
01
09
0B
05
FC
04
04
FF
02
02
01
03
05
04
FE
01
00
01
FC
01
FC
FB
05
02
03
04
06
05
05
11
0C
F6
F4
0F
14
11
0D
12
05
F8
F9
01
01
02
FD
FC
FC
01
F0
F7
0B
08
15
15
1B
1F
1C
21
04
0E
F6
F7
F5
F8
F5
07
0E
12
09
05
02
01
02
04
FF
F4
EB
F2
0B
11
1D
16
11
14
20
12
11
16
0F
0A
FD
FC
FF
F8
FC
01
04
00
F9
01
03
01
03
F9
F2
11
13
12
10
15
14
10
0E
0B
0B
0D
04
0B
0D
FD
FC
FE
F5
FF
FA
F9
FD
09
12
02
03
F5
FE
13
F7
02
06
03
F6
03
FF
02
03
02
07
0D
0B
09
11
07
02
00
04
FA
00
03
0C
FC
05
F3
FC
FE
F9
FA
F7
FB
FB
F5
FA
FB
00
01
02
00
01
FE
02
00
05
04
04
02
FD
FA
03
FE
FE
F3
FD
12
0A
01
F4
F9
FC
FD
FC
F3
FB
00
00
FD
F9
FE
01
FD
0C
08
06
05
00
04
07
08
F2
01
0C
18
05
FA
FB
F7
F9
FA
F5
F7
04
01
04
04
03
01
05
07
08
06
F9
F7
FF
02
F6
FC
F2
05
0C
04
03
01
FA
F3
01
F8
EF
FA
07
01
FC
FC
FB
01
0C
0D
0B
03
04
F0
ED
F4
EC
FA
FD
F7
09
FC
03
06
01
F5
FD
F9
F2
FD
03
F4
E8
ED
FE
05
0D
05
04
08
06
EF
E7
E2
F4
F9
FE
F3
FD
F7
01
0A
01
06
03
FF
F9
FC
F6
ED
E3
ED
00
03
0E
0D
09
03
02
F9
F5
EC
E6
FA
FD
F4
F6
F5
03
07
02
02
01
F8
F5
F8
F2
EB
EE
F5
01
03
0D
0B
0E
0B
0E
15
FA
DF
F3
F9
01
EF
F0
FA
FD
02
FD
0E
06
06
FD
F6
F4
F1
F4
FC
00
0A
10
10
0B
1A
15
03
06
FE
0C
FF
00
F1
F4
F9
03
02
00
06
0E
02
07
00
01
02
02
03
0D
0F
09
0E
0C
07
F8
FA
1D
15
0C
FD
06
F7
01
01
01
FC
02
0D
03
07
04
0E
10
0E
04
0D
03
00
0C
03
04
07
02
00
1B
23
14
03
05
09
09
07
05
08
0A
02
09
0D
12
14
0D
06
06
02
0B
09
06
04
02
08
00
03
1D
16
08
04
04
16
FF
07
03
00
0B
11
08
0E
0C
17
10
06
FB
0A
0D
07
06
F7
FF
FE
FF
F8
08
08
14
EF
08
03
0C
FF
05
07
0E
04
05
0B
0D
0E
07
01
08
04
06
03
00
FA
FB
FD
FB
F6
FD
01
0E
00
F3
F4
0E
08
12
02
11
03
08
14
11
05
02
04
0D
08
09
07
00
F7
02
03
FB
EB
FB
0C
06
FE
FF
FD
17
13
0B
09
12
02
0B
07
01
FD
FF
07
11
FF
00
07
FE
02
05
F7
F2
EC
F4
02
FB
03
0F
21
17
07
F8
00
02
02
01
00
02
01
09
0A
04
03
01
05
05
F7
F8
02
FA
EB
F1
FA
01
00
00
19
12
FD
FC
01
FD
02
FC
06
0A
0B
0E
03
08
FF
FE
FE
00
01
04
12
FA
F6
FD
F2
06
00
FE
0F
11
F9
F4
F2
FD
06
02
00
05
02
0B
08
03
FE
00
0E
0D
07
12
16
0A
FC
FC
EB
FD
FF
02
02
09
FA
EB
F3
FE
F8
FA
FA
FC
FD
02
05
01
05
01
0C
04
09
0E
0B
11
01
0F
FD
00
FD
04
0C
F2
EE
01
0A
FF
F6
F6
F8
FF
FC
09
04
04
FB
F8
02
06
05
F9
F6
F6
EB
09
01
FE
FD
02
03
08
13
13
0B
01
F6
F3
F7
FD
07
07
05
F6
F7
F5
F6
F7
00
03
00
FE
02
FA
01
02
FF
02
04
02
F5
F2
F7
02
FC
01
F9
08
05
ED
FA
F4
F0
F4
FB
03
02
FE
F6
EF
03
FC
FF
FC
FD
FC
00
FD
FE
00
00
04
FD
FE
03
01
02
FB
FB
FE
02
FD
FE
04
03
03
FC
FF
FF
FF
FF
02
FF
00
00
03
03
04
FC
03
00
FF
03
02
FE
FF
FD
04
02
02
FF
00
00
FC
02
04
03
04
02
02
04
FD
04
FE
03
FC
01
02
02
03
FE
FF
02
03
FD
FF
03
03
FD
00
02
FC
FF
04
FD
FF
FF
FF
FE
00
03
FF
03
04
FC
04
FF
FD
03
FE
FD
FB
00
03
02
FE
01
01
00
02
FF
FE
03
FF
00
00
FD
01
FF
04
02
02
04
FF
00
02
03
FC
00
01
FD
03
FB
03
01
FF
03
02
03
FD
FE
FC
FC
01
FF
00
FF
03
00
04
FC
03
FB
03
FD
02
03
FC
FD
FD
FC
01
FB
FF
01
FE
04
FD
FC
04
04
02
FF
FF
FD
FF
03
FC
FE
00
FB
FB
00
FE
FC
FB
FC
02
FD
FD
00
FD
00
00
FD
03
01
01
03
FC
02
FC
04
02
FC
FC
01
02
FD
02
FE
FD
04
03
FD
FE
FC
03
FE
00
FC
02
02
01
01
FC
04
01
FD
FD
01
01
FD
FC
03
FB
FD
FD
FE
FB
FE
FC
03
00
03
FC
FB
03
FC
02
FD
00
03
FD
FF
03
FD
00
01
01
FE
04
00
00
01
FF
FB
03
FF
FD
FD
FC
FD
01
FE
FF
FB
01
FD
03
FD
FD
01
FD
00
FF
00
FE
FE
02
00
FD
02
01
01
00
FD
FF
01
FC
FC
FB
01
00
FD
02
FA
FD
02
00
01
FE
FC
FC
FC
03
FC
FC
00
01
03
FD
01
FC
FB
00
03
FF
FB
02
FC
FB
03
02
FD
FC
01
03
02
FD
01
00
01
FC
FF
01
01
03
01
03
03
02
02
02
03
00
03
04
FF
FE
FF
03
02
FD
03
04
FE
02
FF
FF
FF
03
FE
FF
FE
01
FB
01
FC
FF
FC
03
FC
FC
FE
FC
02
FD
02
03
02
03
FE
04
00
FD
02
FE
01
FC
FC
FB
03
02
FC
02
FF
FF
02
FD
FB
FB
FB
01
03
FE
FC
00
FE
02
FC
05
05
FE
FD
FC
01
FE
01
FF
FB
FD
FC
01
FB
03
FB
FE
FD
01
FF
01
02
FF
FB
00
04
FB
02
FD
02
03
04
01
01
FE
FF
04
FD
FC
01
03
00
FD
FF
FF
02
FF
03
FC
01
FB
01
FF
FF
FC
FC
02
FD
04
00
00
FE
FF
03
03
FC
00
FD
00
04
FE
FB
FB
FC
03
02
02
FB
FB
00
FE
02
FC
FD
FE
FE
FC
00
FE
00
FC
00
FD
FC
FF
FE
FD
FD
01
00
FB
03
FC
FB
FE
FB
FF
FF
02
FC
03
FF
FC
FD
FF
01
03
03
FF
03
FC
FD
FF
FD
FE
03
03
03
FF
FE
FD
FC
FC
FD
01
FE
FD
FF
03
01
03
04
FE
04
00
02
FD
FE
02
00
FB
FE
01
FE
01
FE
03
FB
FD
FB
FB
01
FF
00
02
FC
01
FB
02
04
01
FC
04
FE
00
03
FC
FC
FE
00
02
01
00
01
03
FC
FD
FF
02
FD
01
FC
FC
FE
01
FF
FF
03
FD
FD
FF
FF
04
04
FF
01
FF
FE
FF
FD
FC
00
01
FC
02
FE
FC
FD
00
FB
FB
FD
FE
01
FD
02
FC
00
00
FD
FC
FE
03
FF
03
03
03
00
FD
02
03
FE
FC
FD
FD
01
04
00
04
03
02
FD
04
FE
04
FF
FF
FF
FF
FF
FE
03
03
01
02
FB
02
FD
FB
01
FC
02
FB
02
04
04
FC
00
02
FE
FD
FE
04
01
02
FF
03
FE
FF
FF
FF
FC
02
FE
FF
FE
FC
01
FF
04
FF
04
04
FF
02
03
05
04
00
FF
01
03
02
FF
03
FF
FE
FC
01
FD
FD
FA
FD
FE
FF
FC
03
02
FD
FF
FE
02
FD
FB
04
FE
FF
FE
00
FF
04
04
FD
FD
FF
FD
FD
FC
FE
02
04
02
FC
01
FE
00
FC
FB
FC
FC
FF
04
03
03
00
03
FE
FE
01
04
FF
FD
FD
01
FD
FD
04
FD
02
00
00
00
FD
FC
FE
00
FF
FE
02
FF
04
FE
00
01
FD
03
00
00
02
FA
F9
02
FC
02
00
01
FB
F8
FE
02
FE
FA
F9
F2
F6
FF
00
F4
F9
FD
01
03
01
00
FC
FA
06
F5
F8
FA
02
FB
FA
EB
E4
EE
F8
F1
00
06
FF
FF
F7
F5
F3
F8
F2
09
0A
03
FE
04
02
0F
08
FA
F4
EB
F4
F3
F8
EF
E3
F5
F3
F0
F9
FD
F6
F9
F5
FB
FF
07
02
FE
09
FD
04
FF
FD
0D
FD
FE
F3
F6
F7
EC
FB
03
09
08
02
04
0B
02
04
07
09
00
02
0A
15
10
10
0C
F8
FF
01
07
FD
EE
EA
F2
EF
F3
FF
07
05
0A
01
00
FB
FB
FF
FD
03
0A
0F
0D
06
09
17
02
F7
FF
02
F3
EC
E6
EE
ED
F3
01
02
08
05
03
FD
F7
F7
F0
FF
01
02
04
FA
03
0B
07
19
0C
FE
FD
F8
F1
DE
DC
F3
F1
03
0E
0A
11
00
FE
F8
FB
FA
FF
FC
04
02
F9
07
06
13
0B
15
0B
FE
01
F1
F3
F1
E1
F4
03
0A
0B
12
0A
09
08
FD
F9
F5
FF
02
02
02
04
06
04
15
14
16
1F
11
FC
EE
FF
F5
ED
F9
01
0C
0F
13
12
08
06
FE
F5
F9
FD
FF
FD
FC
FB
05
06
0E
1B
1A
19
F7
00
F3
F6
EF
01
02
0C
0E
0D
15
0F
12
12
03
FB
F5
EF
FB
FE
FC
FC
01
02
08
17
0B
12
F8
F7
F7
E7
F2
02
0F
0D
10
0D
0D
0C
08
0B
0B
00
F6
F4
ED
FA
02
00
04
06
0D
19
1B
22
FB
FB
F9
E9
06
06
11
11
13
0A
0F
0D
0E
16
11
04
F7
EF
F1
FC
08
08
0B
FB
00
0C
10
11
F3
0F
FB
ED
FD
FF
13
08
05
02
0B
02
0A
0B
05
03
03
F3
F7
03
04
0F
05
FD
F5
F2
F8
09
0B
03
F5
F7
F8
F5
05
00
F2
FA
F7
FE
F9
FB
