00001100
00010100
00000010
00001001
11111010
00000010
11111111
00000000
00000010
00001001
00001100
11111011
00000010
11111001
00100100
00010111
00000011
00001101
00001010
11111100
00010000
11110100
00010011
00000111
00000010
00001001
11111101
00000010
00010010
00000101
11110110
11110101
11111110
00001000
11111011
00011001
11111011
00000000
00000001
00000100
11100111
11111011
00000110
00010000
11111001
11111011
11101111
00000000
11111011
00010001
00000011
00001011
00000010
11110010
11111010
00010000
00001001
11110011
00001000
00001000
00000010
11100111
00000000
11111010
00001000
00001110
00000111
00000100
00010101
00010010
11111111
00000111
00010000
00000111
11111110
11111000
00011000
00000000
00001101
00011011
11111010
00000110
11111100
00001010
00011010
00001100
11111000
00000101
00000001
00000011
11111111
00000111
00001000
11110110
11110110
00000111
00000011
11110010
00001000
00000001
00000110
11110111
00001000
11111101
11111011
11101101
11110010
00001000
11111110
00001100
00000100
00001011
00010000
00001110
11111011
11111001
11111011
00000100
00001000
11111011
00010010
00001010
11111100
00001111
00010010
11111111
11111011
00000000
