03
BD
B7
18
CC
FF
07
09
E6
FB
08
01
F2
02
ED
F6
F8
F3
DF
CB
19
10
CE
12
1A
F9
FA
0F
BC
0B
1B
CA
11
F8
00
F4
F7
E1
F9
0D
04
08
E9
F5
0E
00
18
D1
FC
00
FB
EF
CE
0E
F0
0A
11
0D
FC
0E
C8
10
FA
C5
0F
E5
0D
D4
D5
E4
0D
1C
EB
EC
19
00
0A
F9
0F
DB
13
0F
EE
E8
C9
EE
EC
02
13
01
07
15
02
0C
10
0F
EE
18
E1
F0
03
01
0E
09
13
01
0E
0C
03
CD
E7
F9
EA
D9
FA
FF
0C
0F
0E
F6
09
00
F6
09
CA
19
FD
07
2D
F5
0C
21
0A
1A
12
E7
FA
01
F3
08
02
06
1F
0D
F1
14
16
D4
E6
07
2A
1B
E9
D3
E7
C7
07
1A
07
07
D4
ED
09
0E
0C
ED
F8
0A
E6
F4
12
17
00
0B
E2
14
05
32
F7
ED
2B
DD
01
F0
F1
08
E9
10
1B
E5
12
18
0A
D1
EE
FF
CA
00
01
28
17
F8
EF
13
0C
F4
E3
1B
E4
0F
E8
10
E8
17
12
DA
EA
EF
02
E2
E7
E0
FB
EC
FD
DC
0A
EA
04
FF
B9
08
DC
ED
D8
0B
E0
07
1D
34
DF
22
08
E7
E8
DB
E7
04
3F
DB
04
10
0D
F4
10
0C
DC
AC
04
0C
0B
17
16
E8
F5
08
15
FE
F5
0B
AE
15
01
0E
DC
F3
03
12
21
EB
23
06
F1
DC
36
24
18
0F
0C
14
07
FC
04
0D
EC
C6
09
04
13
15
0E
0C
08
24
F8
F6
F0
1D
12
F6
0B
0B
EE
0B
0A
E7
E9
00
0F
D5
0D
03
13
11
04
ED
FE
13
ED
08
07
0E
A8
07
F1
E0
08
0E
09
01
F8
0A
0D
06
FA
EC
F9
F7
E7
E5
0B
FB
FD
E7
08
08
22
0E
E3
02
F4
0F
FE
F6
F8
C9
08
D8
E8
C2
02
1A
01
15
47
FB
17
15
01
1B
12
F4
10
0A
EE
22
0F
F1
16
E5
E9
02
0E
F8
05
03
13
07
C7
FC
02
CA
0C
1B
C2
F6
04
0A
F8
D3
F4
FB
EC
0F
13
13
13
E6
FA
04
10
08
1A
0E
07
FB
EF
AD
11
05
10
07
01
14
F6
09
26
16
14
E5
1A
0A
E1
DF
20
0D
05
15
E3
DC
07
FA
26
0D
FA
D4
AC
F6
E5
E8
E5
02
F4
F4
FC
F3
12
F5
19
0F
02
F8
E6
FB
03
F4
11
14
04
D9
FE
16
09
FA
EF
F2
00
0D
F8
03
0B
05
0E
11
15
07
FC
C0
FE
03
13
0F
D3
FA
F7
03
07
08
FE
F6
13
E0
EA
12
0E
FD
F5
08
EA
FF
F6
F6
03
04
F1
B1
01
D1
03
1F
F8
14
16
D5
D7
A5
0B
14
0C
FF
EA
E3
BB
04
BA
2B
05
BC
17
11
D2
FE
0F
FD
0F
19
B3
F7
B4
D1
00
ED
0F
D8
10
DC
DE
DB
EB
0C
1C
1B
20
DF
F0
1D
1E
03
DF
0F
0A
1A
FF
FD
F4
07
FE
E8
15
CD
10
08
D1
0F
08
10
10
FF
E1
0A
FD
0B
EF
03
FE
F5
B3
12
0D
F7
FC
FB
DA
12
C6
DB
0E
E5
0B
02
11
12
25
1E
0E
FC
03
FB
C0
F5
E7
00
37
1D
09
F5
05
07
C8
09
EB
2A
FF
06
1F
F0
D4
FD
FD
02
15
06
06
14
28
1A
0B
B5
EA
12
00
E1
E1
23
06
10
EE
12
1B
B5
E4
1A
10
D3
07
27
D3
05
0C
0B
EB
07
11
D1
FC
04
F5
03
09
19
EB
E5
03
F7
F5
1D
07
C4
F9
E9
F9
03
0C
F8
F9
08
0B
09
12
12
C9
E9
11
02
01
E6
21
25
FE
0B
07
DB
F6
E9
19
11
F7
DF
10
F2
0C
09
0F
04
0A
09
E8
EF
01
EF
05
E8
2E
09
F9
F0
00
0A
08
14
92
04
11
32
08
E3
0A
01
D3
FB
D3
07
08
3E
03
E4
CD
F7
04
EF
BF
0E
C7
0E
08
E8
09
12
F9
F7
B8
05
00
20
14
EC
F3
BC
EE
FB
D1
FA
E8
09
0D
0B
E0
D2
CD
C2
F6
FB
07
26
1A
0E
E4
13
09
F5
F1
0D
E2
0A
F4
EB
00
DF
EB
F0
D4
F4
CD
E4
0C
D7
EB
09
12
0B
13
E5
07
10
CB
F7
CF
06
E1
ED
2B
F2
11
F6
F3
17
FD
01
13
0D
E0
14
BA
0C
0A
0A
12
D7
E4
0C
E6
FD
01
11
09
13
10
07
06
EB
19
01
11
FF
F7
02
F0
E5
C3
21
0C
27
FA
04
08
16
F4
03
F5
06
F6
D2
FF
12
E0
FE
18
E7
D6
F4
EA
E7
E4
06
FE
D2
F3
FB
0E
F6
07
C6
DC
18
00
E3
24
E8
1B
F5
E4
FE
00
F3
18
1D
1E
03
11
1E
FC
E6
23
0E
13
C7
E4
F6
E1
25
04
D8
E5
2A
F9
12
10
17
31
FD
08
0F
2C
05
09
FA
E3
F0
17
F1
BC
D7
1C
E6
0E
F7
0F
2B
EC
F9
F6
E9
EF
F9
0F
0F
FF
10
03
E0
16
DE
14
07
E5
0D
01
FF
0F
03
E6
F0
0A
FA
17
E9
06
F4
E7
E7
F2
EC
ED
E9
F8
00
09
11
05
11
05
19
D4
00
FE
F6
FA
BE
FE
F2
E3
13
0D
E7
D5
97
10
D5
09
02
14
06
13
10
E0
FE
FE
13
E3
EF
14
EF
F6
FC
C4
10
F0
E4
CD
1D
12
05
07
DD
E4
06
04
F6
FD
F5
08
12
13
0B
05
F7
14
F4
08
12
0F
F6
03
B8
0A
CE
B4
01
01
05
C9
12
0F
BF
ED
0D
0B
08
F6
10
E7
12
D9
F7
04
DB
18
11
ED
0D
FE
01
0E
F8
0C
CF
09
F6
F3
0E
03
FB
0C
FF
14
13
04
0F
07
FD
0D
F2
0D
FC
0A
07
F4
14
0A
03
04
0B
0A
13
EE
DF
0B
D4
F8
FF
FC
CD
FA
FC
E2
F1
05
B7
0D
EA
F6
13
1E
23
18
CC
17
D9
1B
0C
0E
F2
FD
09
03
E9
15
E1
F7
08
07
12
13
16
E1
12
19
FA
06
09
F5
D6
01
F6
F4
E5
0A
A3
CA
F3
03
16
09
F8
E2
01
11
F2
06
B4
F7
0B
FF
10
98
F9
13
0F
E8
1C
F3
16
DF
00
BA
03
FC
FE
DA
10
15
CE
06
E4
FA
11
03
0A
17
0A
FE
05
17
15
0C
0A
0D
DD
BA
11
00
10
0F
FB
0F
00
E7
15
0D
12
D2
07
B0
09
02
ED
F9
03
06
F0
07
0F
06
A6
08
0B
FE
C8
F3
AB
DD
0A
B9
16
06
0A
DF
0D
07
EA
